{"version":"1.0","truncation":null,"padding":null,"added_tokens":[{"id":0,"special":true,"content":"PAD","single_word":false,"lstrip":false,"rstrip":false,"normalized":false},{"id":1,"special":true,"content":"SOS","single_word":false,"lstrip":false,"rstrip":false,"normalized":false},{"id":2,"special":true,"content":"EOS","single_word":false,"lstrip":false,"rstrip":false,"normalized":false},{"id":3,"special":true,"content":"UNK","single_word":false,"lstrip":false,"rstrip":false,"normalized":false}],"normalizer":null,"pre_tokenizer":{"type":"ByteLevel","add_prefix_space":false,"trim_offsets":true},"post_processor":{"type":"ByteLevel","add_prefix_space":true,"trim_offsets":false},"decoder":{"type":"ByteLevel","add_prefix_space":true,"trim_offsets":true},"model":{"dropout":null,"unk_token":null,"continuing_subword_prefix":null,"end_of_word_suffix":null,"fuse_unk":false,"vocab":{"PAD":0,"SOS":1,"EOS":2,"UNK":3,"!":4,"\"":5,"#":6,"$":7,"%":8,"&":9,"'":10,"(":11,")":12,"*":13,"+":14,",":15,"-":16,".":17,"/":18,"0":19,"1":20,"2":21,"3":22,"4":23,"5":24,"6":25,"7":26,"8":27,"9":28,":":29,";":30,"<":31,"=":32,">":33,"?":34,"@":35,"A":36,"B":37,"C":38,"D":39,"E":40,"F":41,"G":42,"H":43,"I":44,"J":45,"K":46,"L":47,"M":48,"N":49,"O":50,"P":51,"Q":52,"R":53,"S":54,"T":55,"U":56,"V":57,"W":58,"X":59,"Y":60,"Z":61,"[":62,"\\":63,"]":64,"^":65,"_":66,"`":67,"a":68,"b":69,"c":70,"d":71,"e":72,"f":73,"g":74,"h":75,"i":76,"j":77,"k":78,"l":79,"m":80,"n":81,"o":82,"p":83,"q":84,"r":85,"s":86,"t":87,"u":88,"v":89,"w":90,"x":91,"y":92,"z":93,"{":94,"|":95,"}":96,"~":97,"¡":98,"¢":99,"£":100,"¤":101,"¥":102,"¦":103,"§":104,"¨":105,"©":106,"ª":107,"«":108,"¬":109,"®":110,"¯":111,"°":112,"±":113,"²":114,"³":115,"´":116,"µ":117,"¶":118,"·":119,"¸":120,"¹":121,"º":122,"»":123,"¼":124,"½":125,"¾":126,"¿":127,"À":128,"Á":129,"Â":130,"Ã":131,"Ä":132,"Å":133,"Æ":134,"Ç":135,"È":136,"É":137,"Ê":138,"Ë":139,"Ì":140,"Í":141,"Î":142,"Ï":143,"Ð":144,"Ñ":145,"Ò":146,"Ó":147,"Ô":148,"Õ":149,"Ö":150,"×":151,"Ø":152,"Ù":153,"Ú":154,"Û":155,"Ü":156,"Ý":157,"Þ":158,"ß":159,"à":160,"á":161,"â":162,"ã":163,"ä":164,"å":165,"æ":166,"ç":167,"è":168,"é":169,"ê":170,"ë":171,"ì":172,"í":173,"î":174,"ï":175,"ð":176,"ñ":177,"ò":178,"ó":179,"ô":180,"õ":181,"ö":182,"÷":183,"ø":184,"ù":185,"ú":186,"û":187,"ü":188,"ý":189,"þ":190,"ÿ":191,"Ā":192,"ā":193,"Ă":194,"ă":195,"Ą":196,"ą":197,"Ć":198,"ć":199,"Ĉ":200,"ĉ":201,"Ċ":202,"ċ":203,"Č":204,"č":205,"Ď":206,"ď":207,"Đ":208,"đ":209,"Ē":210,"ē":211,"Ĕ":212,"ĕ":213,"Ė":214,"ė":215,"Ę":216,"ę":217,"Ě":218,"ě":219,"Ĝ":220,"ĝ":221,"Ğ":222,"ğ":223,"Ġ":224,"ġ":225,"Ģ":226,"ģ":227,"Ĥ":228,"ĥ":229,"Ħ":230,"ħ":231,"Ĩ":232,"ĩ":233,"Ī":234,"ī":235,"Ĭ":236,"ĭ":237,"Į":238,"į":239,"İ":240,"ı":241,"Ĳ":242,"ĳ":243,"Ĵ":244,"ĵ":245,"Ķ":246,"ķ":247,"ĸ":248,"Ĺ":249,"ĺ":250,"Ļ":251,"ļ":252,"Ľ":253,"ľ":254,"Ŀ":255,"ŀ":256,"Ł":257,"ł":258,"Ń":259,"Ġt":260,"re":261,"Ġa":262,"ou":263,"in":264,"Ġ[":265,"ra":266,"Ġ.":267,"Ġth":268,"Ġi":269,"nt":270,"st":271,"at":272,"you":273,"Ġyou":274,"Ġw":275,"Ġthe":276,"Ġf":277,"on":278,"Ġp":279,"el":280,"me":281,"ce":282,"Ġ?":283,"al":284,"sta":285,"Ġto":286,"Ġn":287,"ve":288,"or":289,"tra":290,"ue":291,"th":292,"oo":293,"Ġh":294,"Ġ,":295,"ing":296,"val":297,"Ġan":298,"Ġl":299,"value":300,"er":301,"ura":302,"resta":303,"urant":304,"restaurant":305,"Ġb":306,"Ġis":307,"an":308,"Ġc":309,"ri":310,"Ġs":311,"Ġfor":312,"ot":313,"le":314,"ion":315,"Ġin":316,"train":317,"cou":318,"ed":319,"ave":320,"count":321,"Ġd":322,"se":323,"ld":324,"ould":325,"Ġg":326,"ay":327,"ook":328,"Ġand":329,"otel":330,"ere":331,"ar":332,"ke":333,"Ġwould":334,"Ġwi":335,"ct":336,"Ġthat":337,"rea":338,"rice":339,"de":340,"ame":341,"Ġne":342,"hotel":343,"Ġli":344,"Ġhave":345,"Ġo":346,"name":347,"ll":348,"Ġm":349,"ge":350,"Ġlike":351,"Ġneed":352,"ood":353,"um":354,"ran":355,"Ġre":356,"Ġat":357,"ction":358,"fere":359,"Ġbook":360,"traction":361,"ber":362,"Ġnum":363,"Ġnumber":364,"Ġcan":365,"nce":366,"range":367,"ss":368,"ank":369,"Ġof":370,"Ġare":371,"ference":372,"area":373,"es":374,"ation":375,"attraction":376,"Ġme":377,"day":378,"Ġbe":379,"co":380,"Ġany":381,"Ġdo":382,"Ġit":383,"price":384,"art":385,"Ġ!":386,"one":387,"Ġon":388,"Ġhel":389,"Ġam":390,"Ġhelp":391,"Ġyour":392,"hone":393,"lea":394,"ime":395,"Ġtra":396,"Ġsta":397,"Ġthere":398,"lease":399,"la":400,"thing":401,"Ġwh":402,"Ġplease":403,"Ġwith":404,"pricerange":405,"dd":406,"ress":407,"ure":408,"ddress":409,"Ġrestaurant":410,"ost":411,"rive":412,"ooking":413,"Ġwill":414,"it":415,"yes":416,"Ġprice":417,"by":418,"Ġle":419,"Ġ-":420,"part":421,"ro":422,"Ġwa":423,"Ġtrain":424,"Ġel":425,"Ġelse":426,"lace":427,"Ġanything":428,"Ġthank":429,"ow":430,"wn":431,"ble":432,"ic":433,"code":434,"reference":435,"ostcode":436,"Ġe":437,"ry":438,"Ġlooking":439,"Ġreference":440,"nd":441,"et":442,"Ġtown":443,"Ġhotel":444,"Ġday":445,"Ġall":446,"pe":447,"thank":448,"food":449,"Ġar":450,"Ġta":451,"Ġstar":452,"Ġwhat":453,"Ġtime":454,"reat":455,"the":456,"rom":457,"Ġphone":458,"Ġfrom":459,"so":460,"Ġgood":461,"ree":462,"Ġal":463,"gh":464,"Ġarea":465,"Ġfree":466,"ple":467,"Ġnot":468,"is":469,"xi":470,"Ġso":471,"ter":472,"ly":473,"Ġco":474,"Ġalso":475,"no":476,"ind":477,"phone":478,"parture":479,"Ġlo":480,"Ġrange":481,"Ġni":482,"stin":483,"Ġde":484,"stination":485,"ght":486,"eo":487,"Ġleave":488,"there":489,"Ġpeo":490,"Ġpeople":491,"Ġby":492,"ut":493,"Ġres":494,"ul":495,"time":496,"Ġplace":497,"leave":498,"leaveat":499,"ch":500,"Ġaddress":501,"uest":502,"Ġreser":503,"address":504,"Ġfood":505,"ta":506,"out":507,"Ġloc":508,"Ġstay":509,"ir":510,"Ġarrive":511,"ype":512,"arrive":513,"arriveby":514,"wh":515,"departure":516,"Ġpostcode":517,"destination":518,"Ġu":519,"Ġwas":520,"id":521,"Ġgreat":522,"Ġwant":523,"Ġfind":524,"Ġtoday":525,"bye":526,"ouse":527,"Ġor":528,"Ġguest":529,"ok":530,"Ġgo":531,"Ġab":532,"ound":533,"king":534,"Ġpar":535,"Ġabout":536,"Ġget":537,"Ġmu":538,"Ġgoodbye":539,"Ġwel":540,"ving":541,"ee":542,"ther":543,"for":544,"Ġnight":545,"Ġlocat":546,"house":547,"Ġguesthouse":548,"Ġlocated":549,"Ġsu":550,"Ġpart":551,"Ġsome":552,"Ġparking":553,"place":554,"vation":555,"Ġser":556,"Ġreservation":557,"ful":558,"that":559,"Ġthanks":560,"postcode":561,"mation":562,"what":563,"ting":564,"Ġtable":565,"trainid":566,"act":567,"can":568,"Ġdepart":569,"Ġsh":570,"Ġtheir":571,"Ġinfor":572,"Ġtype":573,"Ġinformation":574,"come":575,"vel":576,"Ġbooked":577,"Ġnights":578,"taxi":579,"Ġwelcome":580,"Ġha":581,"sure":582,"Ġif":583,"if":584,"Ġbooking":585,"Ġtaxi":586,"ounds":587,"Ġtravel":588,"ust":589,"Ġas":590,"fer":591,"com":592,"Ġbut":593,"any":594,"cess":595,"Ġent":596,"just":597,"Ġch":598,"Ġcould":599,"ntact":600,"Ġcontact":601,"okay":602,"ice":603,"ccess":604,"ine":605,"Ġfee":606,"mend":607,"commend":608,"Ġrecommend":609,"Ġlea":610,"Ġtry":611,"very":612,"ket":613,"icket":614,"Ġticket":615,"Ġk":616,"Ġleaving":617,"Ġhow":618,"Ġaf":619,"orry":620,"Ġus":621,"Ġjust":622,"ell":623,"ccessful":624,"Ġno":625,"Ġmany":626,"Ġma":627,"Ġwif":628,"ssi":629,"en":630,"Ġattraction":631,"Ġwifi":632,"Ġshould":633,"Ġpre":634,"Ġafter":635,"ore":636,"ive":637,"Ġpriced":638,"Ġserve":639,"Ġhas":640,"ide":641,"Ġmuch":642,"Ġsuccessful":643,"Ġse":644,"great":645,"how":646,"Ġdoes":647,"ai":648,"Ġthey":649,"Ġprefer":650,"Ġst":651,"Ġsorry":652,"Ġthis":653,"Ġcal":654,"Ġgive":655,"now":656,"Ġwe":657,"Ġr":658,"Ġknow":659,"ally":660,"Ġpreference":661,"rance":662,"vai":663,"vaila":664,"os":665,"Ġentrance":666,"Ġleaves":667,"Ġassi":668,"Ġmake":669,"Ġstarting":670,"our":671,"Ġavaila":672,"tion":673,"ich":674,"Ġmuse":675,"Ġmuseum":676,"thanks":677,"pit":678,"pital":679,"ospital":680,"'ll":681,"Ġarri":682,"Ġmore":683,"Ġavailable":684,"Ġmin":685,"oom":686,"Ġroom":687,"are":688,"Ġce":689,"Ġminut":690,"ption":691,"Ġmat":692,"Ġsame":693,"Ġwhere":694,"ol":695,"Ġwor":696,"Ġint":697,"jo":698,"tain":699,"Ġsomething":700,"Ġminutes":701,"Ġwhich":702,"Ġper":703,"Ġdeparting":704,"joy":705,"un":706,"Ġarrives":707,"Ġnice":708,"Ġserves":709,"type":710,"Ġoption":711,"Ġmy":712,"ea":713,"Ġwork":714,"Ġvery":715,"booking":716,"Ġdif":717,"Ġtrains":718,"Ġreserve":719,"ferent":720,"Ġdifferent":721,"Ġgoing":722,"Ġra":723,"other":724,"Ġtell":725,"ment":726,"Ġanother":727,"Ġen":728,"Ġmay":729,"Ġtickets":730,"ose":731,"do":732,"Ġv":733,"Ġstars":734,"Ġneeded":735,"hospital":736,"lu":737,"Ġenjoy":738,"Ġoptions":739,"fo":740,"Ġintere":741,"Ġinterest":742,"we":743,"ia":744,"Ġstation":745,"ular":746,"Ġnow":747,"Ġpro":748,"Ġsounds":749,"clu":750,"your":751,"Ġassist":752,"lle":753,"Ġcri":754,"net":755,"Ġside":756,"teria":757,"Ġcriteria":758,"ity":759,"olice":760,"Ġpounds":761,"Ġother":762,"ite":763,"isit":764,"Ġvisit":765,"Ġinter":766,"Ġinternet":767,"ead":768,"Ġusing":769,"Ġup":770,"Ġpartic":771,"Ġparticular":772,"Ġcolle":773,"Ġcollege":774,"ely":775,"Ġtri":776,"Ġspe":777,"led":778,"Ġthem":779,"Ġtrip":780,"Ġrating":781,"Ġspec":782,"able":783,"Ġcalled":784,"rtain":785,"ur":786,"pp":787,"Ġspecif":788,"Ġtot":789,"Ġdeparture":790,"Ġtotal":791,"Ġable":792,"Ġbo":793,"ck":794,"Ġpic":795,"Ġarriving":796,"bp":797,"Ġgbp":798,"Ġwell":799,"Ġlet":800,"Ġcity":801,"Ġspecific":802,"Ġtake":803,"Ġcent":804,"ually":805,"Ġevery":806,"Ġguesthouses":807,"Ġour":808,"right":809,"Ġfine":810,"Ġthin":811,"Ġmeet":812,"Ġinterested":813,"Ġlook":814,"der":815,"gge":816,"ggest":817,"Ġsuggest":818,"Ġcenter":819,"ral":820,"police":821,"qu":822,"where":823,"Ġreserved":824,"Ġcon":825,"Ġbeen":826,"Ġdestination":827,"Ġcar":828,"Ġthose":829,"Ġcall":830,"Ġpick":831,"Ġpay":832,"Ġcom":833,"Ġmatch":834,"Ġthink":835,"Ġcode":836,"fe":837,"vice":838,"Ġmind":839,"Ġpost":840,"Ġservice":841,"hi":842,"Ġinclu":843,"Ġho":844,"Ġseve":845,"Ġseveral":846,"Ġfound":847,"all":848,"Ġche":849,"could":850,"Ġattractions":851,"Ġcu":852,"have":853,"Ġprov":854,"Ġsee":855,"Ġcare":856,"onder":857,"Ġreally":858,"Ġsure":859,"Ġlocation":860,"Ġpayable":861,"Ġneeds":862,"Ġprovide":863,"Ġtoo":864,"Ġmatter":865,"Ġoffer":866,"Ġtraveling":867,"Ġeverything":868,"ate":869,"Ġcuis":870,"Ġbye":871,"Ġun":872,"Ġlon":873,"Ġcuisine":874,"Ġeat":875,"onderful":876,"ning":877,"Ġwhen":878,"Ġinclude":879,"ver":880,"ain":881,"ppy":882,"info":883,"quest":884,"Ġtowninfo":885,"Ġarrival":886,"Ġbet":887,"Ġcertain":888,"not":889,"Ġid":890,"Ġcost":891,"lad":892,"Ġthen":893,"Ġcheck":894,"please":895,"fect":896,"Ġboth":897,"Ġfit":898,"Ġenter":899,"Ġfe":900,"Ġpo":901,"Ġset":902,"Ġlong":903,"Ġchoo":904,"stance":905,"Ġinfo":906,"gain":907,"Ġassistance":908,"Ġfur":909,"Ġhappy":910,"Ġfurther":911,"ts":912,"ately":913,"Ġact":914,"Ġagain":915,"Ġmuseums":916,"son":917,"Ġwonderful":918,"ello":919,"Ġstaying":920,"Ġdid":921,"ool":922,"tun":923,"Ġpark":924,"hello":925,"row":926,"fortun":927,"fortunately":928,"stead":929,"Ġnar":930,"Ġinstead":931,"Ġnarrow":932,"irst":933,"Ġdown":934,"Ġthing":935,"Ġchoose":936,"ire":937,"Ġout":938,"Ġactually":939,"Ġconf":940,"Ġperson":941,"een":942,"Ġlist":943,"Ġentertain":944,"Ġdine":945,"Ġhope":946,"ha":947,"Ġentertainment":948,"wi":949,"ough":950,"Ġfirst":951,"ween":952,"ted":953,"would":954,"arch":955,"Ġcho":956,"Ġdeparts":957,"ither":958,"Ġbetween":959,"Ġex":960,"Ġsearch":961,"Ġonly":962,"Ġchoice":963,"unfortunately":964,"Ġright":965,"Ġac":966,"Ġcontacting":967,"ie":968,"Ġad":969,"Ġok":970,"Ġglad":971,"Ġcl":972,"Ġrequest":973,"be":974,"Ġqu":975,"Ġfa":976,"Ġname":977,"em":978,"Ġhouse":979,"Ġcour":980,"mi":981,"Ġcourse":982,"Ġseat":983,"Ġrea":984,"Ġcolleges":985,"Ġpl":986,"Ġmi":987,"por":988,"Ġarch":989,"alright":990,"Ġnear":991,"Ġperfect":992,"Ġhospital":993,"Ġsy":994,"ast":995,"stem":996,"Ġsystem":997,"mm":998,"Ġear":999,"as":1000,"actually":1001,"ab":1002,"Ġkind":1003,"Ġeither":1004,"their":1005,"Ġits":1006,"blem":1007,"Ġproblem":1008,"Ġplea":1009,"Ġconfir":1010,"Ġclose":1011,"Ġhead":1012,"Ġreservations":1013,"club":1014,"Ġcomple":1015,"Ġgot":1016,"Ġserving":1017,"Ġplan":1018,"Ġnightclub":1019,"quire":1020,"itect":1021,"Ġtheat":1022,"Ġpossi":1023,"ps":1024,"Ġhere":1025,"Ġarchitect":1026,"Ġquite":1027,"Ġwere":1028,"ian":1029,"Ġrequire":1030,"fore":1031,"of":1032,"certain":1033,"Ġpool":1034,"certainly":1035,"sorry":1036,"ions":1037,"Ġfew":1038,"Ġshall":1039,"Ġdays":1040,"Ġfinding":1041,"Ġy":1042,"Ġlot":1043,"Ġboat":1044,"does":1045,"miss":1046,"and":1047,"Ġarchitecture":1048,"mission":1049,"they":1050,"Ġswi":1051,"pen":1052,"Ġpleasure":1053,"Ġpreferences":1054,"Ġcalling":1055,"Ġparty":1056,"good":1057,"Ġadmission":1058,"Ġearl":1059,"per":1060,"Ġthese":1061,"ill":1062,"us":1063,"Ġthough":1064,"Ġpossible":1065,"Ġap":1066,"lent":1067,"Ġhour":1068,"haps":1069,"Ġbefore":1070,"Ġmade":1071,"may":1072,"og":1073,"ard":1074,"Ġmatching":1075,"ele":1076,"ish":1077,"sounds":1078,"sol":1079,"ton":1080,"Ġperhaps":1081,"Ġsound":1082,"Ġplanning":1083,"Ġtheatre":1084,"Ġpolice":1085,"iz":1086,"Ġmeets":1087,"solut":1088,"Ġreach":1089,"Ġrequirement":1090,"solutely":1091,"ever":1092,"Ġokay":1093,"Ġswimm":1094,"ex":1095,"Ġve":1096,"Ġswimming":1097,"Ġbest":1098,"Ġchoices":1099,"Ġresul":1100,"ull":1101,"well":1102,"Ġro":1103,"oh":1104,"Ġchan":1105,"Ġlat":1106,"Ġba":1107,"il":1108,"let":1109,"Ġrecommendation":1110,"vely":1111,"Ġfav":1112,"Ġresults":1113,"absolutely":1114,"cel":1115,"Ġinto":1116,"my":1117,"Ġoffers":1118,"Ġfavor":1119,"Ġapp":1120,"ma":1121,"Ġhe":1122,"nope":1123,"olog":1124,"Ġcompleted":1125,"Ġdin":1126,"Ġsomewhere":1127,"Ġspor":1128,"Ġlisted":1129,"ile":1130,"Ġca":1131,"su":1132,"rou":1133,"Ġcannot":1134,"Ġlove":1135,"ci":1136,"Ġservices":1137,"Ġfavorite":1138,"Ġhelpful":1139,"Ġlater":1140,"elephone":1141,"Ġback":1142,"Ġyes":1143,"cellent":1144,"Ġsports":1145,"Ġthan":1146,"Ġdes":1147,"Ġmight":1148,"goodbye":1149,"book":1150,"Ġmost":1151,"Ġsend":1152,"Ġtelephone":1153,"ad":1154,"ti":1155,"Ġneeding":1156,"Ġlovely":1157,"Ġstill":1158,"Ġrated":1159,"od":1160,"which":1161,"Ġshow":1162,"eah":1163,"Ġquest":1164,"Ġcine":1165,"Ġshor":1166,"Ġyet":1167,"Ġapolog":1168,"Ġmaybe":1169,"'ve":1170,"Ġri":1171,"Ġwhile":1172,"ute":1173,"enjoy":1174,"elf":1175,"Ġdepartment":1176,"Ġunsu":1177,"Ġah":1178,"Ġlod":1179,"Ġheading":1180,"perfect":1181,"Ġfun":1182,"Ġcoming":1183,"Ġunsuccessful":1184,"ies":1185,"te":1186,"Ġahead":1187,"yeah":1188,"Ġmatches":1189,"red":1190,"Ġmo":1191,"Ġunable":1192,"Ġclosest":1193,"ulti":1194,"urch":1195,"Ġpostal":1196,"Ġseats":1197,"Ġgrou":1198,"Ġmulti":1199,"Ġpicked":1200,"dy":1201,"reci":1202,"Ġrest":1203,"Ġgroup":1204,"sh":1205,"Ġmultiple":1206,"Ġadd":1207,"Ġcomm":1208,"glad":1209,"Ġappreci":1210,"depart":1211,"Ġquestions":1212,"Ġchange":1213,"tt":1214,"fin":1215,"Ġconfirm":1216,"cer":1217,"ully":1218,"Ġaround":1219,"ize":1220,"bly":1221,"Ġwanting":1222,"Ġappreciate":1223,"Ġride":1224,"Ġtrying":1225,"Ġaccom":1226,"ging":1227,"Ġcommute":1228,"gin":1229,"itely":1230,"Ġfits":1231,"finitely":1232,"Ġhi":1233,"self":1234,"Ġconcer":1235,"ome":1236,"Ġlocal":1237,"Ġpreferred":1238,"ant":1239,"Ġsuit":1240,"Ġsuccess":1241,"Ġnothing":1242,"Ġapologize":1243,"fully":1244,"ition":1245,"iest":1246,"Ġbegin":1247,"Ġlooks":1248,"Ġcor":1249,"Ġover":1250,"reet":1251,"ier":1252,"mod":1253,"Ġlisting":1254,"Ġroad":1255,"Ġend":1256,"Ġearliest":1257,"department":1258,"Ġaccommod":1259,"excellent":1260,"Ġcosts":1261,"Ġshorter":1262,"Ġcinema":1263,"don":1264,"ling":1265,"wes":1266,"Ġrooms":1267,"wesome":1268,"Ġeve":1269,"nue":1270,"Ġsuggestions":1271,"Ġopen":1272,"when":1273,"Ġearlier":1274,"ping":1275,"Ġsch":1276,"Ġinteresting":1277,"Ġstreet":1278,"Ġparks":1279,"Ġnightclubs":1280,"Ġvenue":1281,"itional":1282,"Ġchurch":1283,"Ġmyself":1284,"Ġsuch":1285,"Ġnew":1286,"Ġsuccessfully":1287,"Ġthings":1288,"Ġstart":1289,"Ġbetter":1290,"orn":1291,"Ġsite":1292,"Ġdefinitely":1293,"Ġworks":1294,"Ġseem":1295,"rect":1296,"Ġhoping":1297,"Ġj":1298,"Ġ#":1299,"Ġlitt":1300,"Ġtravelling":1301,"Ġwanted":1302,"Ġdining":1303,"Ġlittle":1304,"Ġame":1305,"Ġnone":1306,"ary":1307,"bil":1308,"uration":1309,"will":1310,"Ġacorn":1311,"Ġduration":1312,"ail":1313,"Ġvisiting":1314,"Ġconfirmation":1315,"Ġmeal":1316,"Ġtimes":1317,"Ġgoes":1318,"ne":1319,"Ġdate":1320,"Ġinclud":1321,"xt":1322,"Ġnext":1323,"Ġcorrect":1324,"unt":1325,"int":1326,"fera":1327,"Ġim":1328,"Ġsa":1329,"Ġgue":1330,"Ġadditional":1331,"Ġhigh":1332,"cri":1333,"Ġking":1334,"Ġdescri":1335,"Ġlodging":1336,"rian":1337,"awesome":1338,"edu":1339,"Ġbeginning":1340,"Ġdescription":1341,"way":1342,"rif":1343,"ntion":1344,"Ġpa":1345,"Ġprefera":1346,"Ġcertainly":1347,"Ġheaded":1348,"Ġschedu":1349,"Ġanytime":1350,"ities":1351,"Ġnearby":1352,"astic":1353,"arest":1354,"Ġpools":1355,"wonderful":1356,"Ġnearest":1357,"rist":1358,"Ġdet":1359,"Ġfeel":1360,"Ġcomplete":1361,"raid":1362,"Ġcome":1363,"Ġafraid":1364,"Ġavailabil":1365,"Ġones":1366,"Ġavailability":1367,"ight":1368,"Ġfut":1369,"Ġlast":1370,"Ġbit":1371,"Ġpicking":1372,"ails":1373,"Ġfuture":1374,"Ġconfus":1375,"am":1376,"ner":1377,"ries":1378,"Ġevening":1379,"ous":1380,"Ġmor":1381,"Ġguess":1382,"vi":1383,"yle":1384,"Ġty":1385,"Ġmention":1386,"Ġrun":1387,"pular":1388,"Ġbel":1389,"Ġthats":1390,"Ġhowever":1391,"Ġpopular":1392,"Ġready":1393,"Ġpreferably":1394,"Ġreached":1395,"Ġmoment":1396,"pes":1397,"Ġway":1398,"Ġshowing":1399,"dge":1400,"que":1401,"Ġhelping":1402,"Ġguests":1403,"arri":1404,"pool":1405,"Ġaust":1406,"Ġref":1407,"Ġfees":1408,"Ġdinner":1409,"im":1410,"Ġwish":1411,"Ġhold":1412,"pens":1413,"Ġ&":1414,"Ġcons":1415,"Ġlots":1416,"Ġschedule":1417,"ster":1418,"Ġheard":1419,"Ġdetails":1420,"Ġlate":1421,"Ġmeeting":1422,"Ġsay":1423,"den":1424,"ations":1425,"ross":1426,"Ġonce":1427,"Ġlistings":1428,"Ġnecess":1429,"Ġuse":1430,"Ġsometime":1431,"Ġspecification":1432,"Ġexact":1433,"Ġtypes":1434,"Ġdire":1435,"Ġtakes":1436,"rify":1437,"pensive":1438,"did":1439,"Ġide":1440,"ers":1441,"port":1442,"unting":1443,"hmm":1444,"Ġfi":1445,"Ġlu":1446,"ric":1447,"Ġlocate":1448,"Ġtheatres":1449,"ward":1450,"Ġgetting":1451,"Ġunfortunately":1452,"Ġconsid":1453,"ng":1454,"Ġbu":1455,"Ġgets":1456,"Ġlondon":1457,"sian":1458,"wel":1459,"Ġcla":1460,"Ġinex":1461,"Ġothers":1462,"Ġhear":1463,"welcome":1464,"age":1465,"Ġwee":1466,"med":1467,"Ġcou":1468,"happy":1469,"Ġseems":1470,"Ġinexpensive":1471,"Ġsl":1472,"ick":1473,"Ġbelie":1474,"got":1475,"sing":1476,"Ġz":1477,"Ġbar":1478,"Ġappe":1479,"Ġlodge":1480,"Ġnecessary":1481,"ep":1482,"ort":1483,"Ġwait":1484,"Ġrather":1485,"Ġpoint":1486,"Ġbelieve":1487,"con":1488,"Ġentries":1489,"Ġearly":1490,"cide":1491,"tant":1492,"portant":1493,"Ġboating":1494,"mas":1495,"Ġdis":1496,"itate":1497,"Ġhouses":1498,"Ġimportant":1499,"arriot":1500,"Ġhes":1501,"Ġcross":1502,"Ġmarriot":1503,"river":1504,"Ġnamed":1505,"Ġhesitate":1506,"Ġplent":1507,"Ġbrea":1508,"pect":1509,"Ġchoosing":1510,"Ġmorning":1511,"Ġslot":1512,"Ġplenty":1513,"cking":1514,"Ġgree":1515,"arge":1516,"Ġrecommendations":1517,"Ġsaid":1518,"Ġnor":1519,"Ġdone":1520,"Ġmust":1521,"Ġhad":1522,"Ġminute":1523,"booked":1524,"Ġmentioned":1525,"ase":1526,"end":1527,"Ġleast":1528,"Ġbreak":1529,"lton":1530,"Ġtr":1531,"Ġtou":1532,"Ġpm":1533,"Ġhall":1534,"Ġhunting":1535,"ready":1536,"Ġasian":1537,"Ġthinking":1538,"ury":1539,"Ġalready":1540,"izz":1541,"Ġaccommodate":1542,"ville":1543,"Ġdat":1544,"Ġwhe":1545,"nder":1546,"Ġchecking":1547,"Ġer":1548,"Ġsp":1549,"Ġgon":1550,"Ġoff":1551,"Ġea":1552,"Ġsuggestion":1553,"Ġcase":1554,"Ġton":1555,"Ġfin":1556,"Ġinj":1557,"ford":1558,"Ġincluding":1559,"lish":1560,"sb":1561,"Ġgall":1562,"Ġreg":1563,"Ġhap":1564,"Ġconfirmed":1565,"Ġwhether":1566,"Ġeach":1567,"'re":1568,"here":1569,"ery":1570,"Ġrout":1571,"Ġconfusion":1572,"bo":1573,"from":1574,"fast":1575,"use":1576,"ray":1577,"Ġthr":1578,"ated":1579,"Ġbed":1580,"Ġsort":1581,"Ġcharge":1582,"Ġlets":1583,"ong":1584,"Ġpric":1585,"ered":1586,"Ġsoon":1587,"Ġva":1588,"Ġexcellent":1589,"Ġaccommodations":1590,"Ġluck":1591,"Ġbreakfast":1592,"li":1593,"cep":1594,"this":1595,"Ġcur":1596,"rop":1597,"Ġexpect":1598,"Ġpleas":1599,"Ġgonville":1600,"Ġpricing":1601,"'d":1602,"ntastic":1603,"thall":1604,"Ġforgot":1605,"Ġwithin":1606,"ured":1607,"ience":1608,"Ġfantastic":1609,"Ġconcert":1610,"Ġconcerthall":1611,"Ġamen":1612,"Ġroute":1613,"he":1614,"Ġfull":1615,"Ġsc":1616,"Ġoh":1617,"Ġnumbers":1618,"Ġart":1619,"ene":1620,"Ġchester":1621,"Ġrequested":1622,"Ġmilton":1623,"Ġconsider":1624,"Ġthrough":1625,"ah":1626,"Ġke":1627,"ince":1628,"Ġwonder":1629,"Ġpizz":1630,"Ġcat":1631,"Ġdont":1632,"Ġentry":1633,"Ġchurches":1634,"Ġlatest":1635,"Ġhappen":1636,"ca":1637,"riend":1638,"Ġforward":1639,"owing":1640,"nothing":1641,"Ġsomeplace":1642,"Ġboats":1643,"Ġweek":1644,"'t":1645,"Ġinjured":1646,"Ġwhatever":1647,"some":1648,"thern":1649,"Ġaccide":1650,"Ġtheater":1651,"Ġincluded":1652,"Ġhighly":1653,"Ġtourist":1654,"Ġaccident":1655,"her":1656,"to":1657,"Ġcab":1658,"anything":1659,"maybe":1660,"Ġrob":1661,"Ġkings":1662,"Ġamenities":1663,"hey":1664,"Ġkeep":1665,"ws":1666,"Ġfriend":1667,"ory":1668,"Ġbus":1669,"uring":1670,"before":1671,"Ġregard":1672,"Ġwondering":1673,"ged":1674,"ridge":1675,"Ġsain":1676,"Ġdriver":1677,"Ġexp":1678,"ways":1679,"either":1680,"side":1681,"Ġcb":1682,"then":1683,"Ġshort":1684,"ngth":1685,"Ġclarify":1686,"Ġappear":1687,"Ġtonight":1688,"ist":1689,"ial":1690,"Ġair":1691,"rame":1692,"Ġsele":1693,"Ġliver":1694,"ssage":1695,"Ġlength":1696,"uti":1697,"Ġunder":1698,"Ġuna":1699,"ham":1700,"Ġchesterton":1701,"fant":1702,"looking":1703,"Ġran":1704,"res":1705,"Ġayle":1706,"Ġtold":1707,"deed":1708,"ctions":1709,"noon":1710,"Ġafternoon":1711,"Ġstyle":1712,"vailable":1713,"Ġspecifically":1714,"Ġcomp":1715,"Ġfitting":1716,"Ġrequests":1717,"Ġaustrian":1718,"Ġexactly":1719,"Ġgallery":1720,"Ġpleasant":1721,"Ġliverpool":1722,"fantastic":1723,"bed":1724,"cor":1725,"ntil":1726,"Ġfare":1727,"rican":1728,"Ġduring":1729,"its":1730,"Ġalways":1731,"Ġuntil":1732,"Ġspecify":1733,"Ġexc":1734,"Ġdesk":1735,"utiful":1736,"Ġunavailable":1737,"ual":1738,"vie":1739,"Ġbea":1740,"Ġbeing":1741,"table":1742,"thats":1743,"unch":1744,"Ġamerican":1745,"sbray":1746,"both":1747,"Ġpizza":1748,"Ġairport":1749,"done":1750,"ror":1751,"Ġque":1752,"Ġfar":1753,"Ġdou":1754,"Ġarrange":1755,"Ġcinemas":1756,"tty":1757,"Ġvari":1758,"Ġrobbed":1759,"Ġbeautiful":1760,"ama":1761,"pri":1762,"ntly":1763,"mem":1764,"Ġope":1765,"esian":1766,"Ġpretty":1767,"Ġenough":1768,"Ġletting":1769,"Ġaccep":1770,"cond":1771,"Ġerror":1772,"bury":1773,"blish":1774,"try":1775,"Ġfen":1776,"stablish":1777,"erm":1778,"Ġclu":1779,"Ġremem":1780,"Ġmean":1781,"Ġheld":1782,"ican":1783,"Ġestablish":1784,"Ġorder":1785,"Ġsecond":1786,"Ġoffering":1787,"vers":1788,"ogy":1789,"Ġpassage":1790,"Ġclub":1791,"Ġgene":1792,"Ġmaking":1793,"Ġseeing":1794,"Ġmarriott":1795,"Ġexcit":1796,"first":1797,"po":1798,"rook":1799,"Ġhelped":1800,"Ġallowing":1801,"ung":1802,"Ġpicky":1803,"Ġpossibly":1804,"Ġcam":1805,"Ġgreen":1806,"Ġregarding":1807,"Ġsaint":1808,"Ġdouble":1809,"Ġestablishment":1810,"Ġgeneral":1811,"ig":1812,"ked":1813,"logy":1814,"most":1815,"sue":1816,"Ġpurch":1817,"ale":1818,"ander":1819,"Ġmet":1820,"Ġsupp":1821,"dern":1822,"ient":1823,"Ġswimmingpool":1824,"Ġapologies":1825,"Ġjama":1826,"Ġdirect":1827,"Ġaylesbray":1828,"find":1829,"Ġjo":1830,"Ġhin":1831,"Ġhung":1832,"ero":1833,"Ġbish":1834,"Ġtrainid":1835,"Ġcount":1836,"prise":1837,"Ġjamaican":1838,"more":1839,"sw":1840,"Ġale":1841,"Ġsince":1842,"Ġindeed":1843,"Ġwithout":1844,"Ġever":1845,"Ġmodern":1846,"Ġrunning":1847,"Ġzero":1848,"Ġcurre":1849,"Ġbisho":1850,"ip":1851,"Ġalright":1852,"Ġchrist":1853,"Ġconcern":1854,"Ġnews":1855,"Ġremember":1856,"Ġexcited":1857,"Ġpurchase":1858,"ds":1859,"iv":1860,"lo":1861,"rs":1862,"sc":1863,"also":1864,"get":1865,"ical":1866,"nding":1867,"Ġrecommended":1868,"ourne":1869,"Ġsafe":1870,"Ġbudge":1871,"Ġalex":1872,",[":1873,"],[":1874,"ought":1875,"Ġbas":1876,"Ġdan":1877,"geta":1878,"Ġrevie":1879,"Ġarchitectura":1880,"Ġvegeta":1881,"Ġnorthern":1882,"Ġspot":1883,"Ġbudget":1884,"Ġvegetarian":1885,"ff":1886,"ub":1887,"zing":1888,"Ġtran":1889,"alay":1890,"Ġcate":1891,"Ġmeant":1892,"Ġanymore":1893,"ites":1894,"Ġtaking":1895,"Ġtables":1896,"Ġwhichever":1897,"Ġinterests":1898,"Ġfami":1899,"Ġdirections":1900,"Ġexpecting":1901,"Ġappears":1902,"Ġacceptable":1903,"Ġalexander":1904,"Ġcateg":1905,"cy":1906,"Ġant":1907,"Ġthought":1908,"sted":1909,"Ġmalay":1910,"Ġbeca":1911,"Ġwilling":1912,"Ġeast":1913,"Ġhaving":1914,"iness":1915,"Ġsearching":1916,"Ġcant":1917,"Ġhist":1918,"Ġcouple":1919,"Ġhuntingdon":1920,"Ġarchitectural":1921,"Ġbecause":1922,"Ġaccess":1923,"Ġansw":1924,"erry":1925,"Ġissue":1926,"Ġsw":1927,"Ġsou":1928,"ses":1929,"Ġrecor":1930,"oney":1931,"ety":1932,"Ġbusiness":1933,"Ġdanish":1934,"Ġmalaysian":1935,"azing":1936,"Ġfo":1937,"Ġhut":1938,"Ġhol":1939,"lets":1940,"Ġmoney":1941,"Ġamazing":1942,"Ġcherry":1943,"Ġactiv":1944,"Ġverify":1945,"Ġranging":1946,"Ġvariety":1947,"Ġreviews":1948,"Ġtrans":1949,"iday":1950,"Ġawesome":1951,"ount":1952,"ina":1953,"star":1954,"rib":1955,"Ġdit":1956,"Ġmood":1957,"Ġamount":1958,"ided":1959,"Ġsur":1960,"Ġchose":1961,"Ġmain":1962,"Ġsection":1963,"Ġexper":1964,"Ġaddres":1965,"Ġdates":1966,"something":1967,"Ġhinton":1968,"Ġcurrently":1969,"Ġholiday":1970,"sa":1971,"Ġframe":1972,"Ġput":1973,"Ġgar":1974,"definitely":1975,"Ġwife":1976,"Ġclos":1977,"bean":1978,"Ġswiss":1979,"Ġdesire":1980,"Ġlodgings":1981,"Ġidea":1982,"Ġbishops":1983,"Ġrecords":1984,"ban":1985,"brook":1986,"go":1987,"ns":1988,"rat":1989,"Ġiri":1990,"Ġfact":1991,"stake":1992,"Ġbist":1993,"Ġsir":1994,"Ġgerm":1995,"eology":1996,"Ġspecial":1997,"Ġcuban":1998,"Ġchecked":1999,"Ġmistake":2000,"Ġcamb":2001,"Ġcategory":2002,"ribbean":2003,"Ġirish":2004,"Ġgerman":2005,"cool":2006,"up":2007,"Ġresta":2008,"Ġfan":2009,"Ġpound":2010,"Ġpas":2011,"Ġbridge":2012,"ando":2013,"Ġcool":2014,"Ġgast":2015,"Ġasked":2016,"Ġkos":2017,"Ġarcha":2018,"ably":2019,"abase":2020,"Ġeven":2021,"Ġschool":2022,"Ġjourne":2023,"Ġdisp":2024,"Ġdatabase":2025,"Ġcatch":2026,"Ġtransport":2027,"Ġditton":2028,"Ġgarden":2029,"Ġbistro":2030,"Ġkosher":2031,"Ġjourney":2032,"ied":2033,"ming":2034,"Ġtal":2035,"Ġpol":2036,"Ġinqu":2037,"Ġman":2038,"Ġrel":2039,"Ġatte":2040,"Ġpersian":2041,"Ġmiss":2042,"Ġcaribbean":2043,"Ġrestate":2044,"need":2045,"Ġconfused":2046,"Ġhuntington":2047,"Ġselect":2048,"Ġquery":2049,"Ġopening":2050,"Ġdispute":2051,"sic":2052,"Ġinn":2053,"edish":2054,"Ġmid":2055,"Ġwhy":2056,"Ġalone":2057,"Ġru":2058,"Ġassisting":2059,"Ġtaken":2060,"Ġtheaters":2061,"Ġgreek":2062,"Ġfinish":2063,"Ġsuppose":2064,"Ġcounty":2065,"Ġswedish":2066,"Ġaddresses":2067,"pick":2068,"was":2069,"elp":2070,"ven":2071,"Ġbir":2072,"lexi":2073,"Ġgra":2074,"Ġnever":2075,"ches":2076,"Ġgiven":2077,"olk":2078,"Ġstations":2079,"ralian":2080,"Ġchance":2081,"Ġaustralian":2082,"Ġshorten":2083,"Ġchristmas":2084,"Ġarchaeology":2085,"lexible":2086,"ty":2087,"ines":2088,"Ġflexible":2089,"Ġbelf":2090,"Ġhaven":2091,"Ġalter":2092,"Ġalong":2093,"ssian":2094,"Ġpersonally":2095,"Ġchanged":2096,"Ġdesired":2097,"Ġtransportation":2098,"Ġrussian":2099,"ait":2100,"bson":2101,"ent":2102,"tc":2103,"tish":2104,"rant":2105,"Ġindon":2106,"Ġarbury":2107,"Ġbookings":2108,"coming":2109,"Ġwent":2110,"Ġworked":2111,"netian":2112,"Ġupsc":2113,"Ġhobson":2114,"Ġeating":2115,"Ġadress":2116,"Ġadden":2117,"Ġqual":2118,"Ġquick":2119,"usion":2120,"Ġvenetian":2121,"Ġappeal":2122,"Ġscot":2123,"Ġindonesian":2124,"Ġupscale":2125,"help":2126,"ively":2127,"nn":2128,"wait":2129,"ern":2130,"Ġbunch":2131,"Ġcreat":2132,"Ġsri":2133,"seng":2134,"Ġob":2135,"onese":2136,"Ġyourself":2137,"Ġstan":2138,"Ġetc":2139,"Ġdepe":2140,"Ġabsolutely":2141,"Ġupcoming":2142,"Ġunus":2143,"Ġnarrows":2144,"Ġeastern":2145,"Ġcantonese":2146,"Ġsurprise":2147,"Ġexperience":2148,"Ġpasseng":2149,"Ġscottish":2150,"Ġunusual":2151,"ho":2152,"khouse":2153,"nah":2154,"pha":2155,"wor":2156,"alan":2157,"Ġhand":2158,"Ġlank":2159,"Ġbra":2160,"Ġsing":2161,"arket":2162,"kend":2163,"Ġtravels":2164,"Ġafford":2165,"Ġstea":2166,"nown":2167,"Ġmill":2168,"Ġsuitable":2169,"rific":2170,"Ġcomes":2171,"Ġconsidered":2172,"Ġundersta":2173,"Ġanswered":2174,"Ġcloser":2175,"Ġpolish":2176,"Ġlankan":2177,"arian":2178,"bably":2179,"ccan":2180,"op":2181,"over":2182,"occan":2183,"ring":2184,"tell":2185,"vol":2186,"Ġtus":2187,"Ġtrou":2188,"raunt":2189,"Ġfusion":2190,"vered":2191,"Ġbro":2192,"Ġbill":2193,"Ġsat":2194,"Ġsites":2195,"Ġandre":2196,"Ġold":2197,"ghan":2198,"Ġcovers":2199,"Ġdec":2200,"ivers":2201,"Ġparticularly":2202,"Ġspend":2203,"Ġreason":2204,"Ġmoroccan":2205,"vious":2206,"Ġweekend":2207,"Ġbarbe":2208,"Ġhungarian":2209,"Ġanth":2210,"Ġgardens":2211,"Ġaltern":2212,"Ġunderstand":2213,"Ġtuscan":2214,"Ġtrouble":2215,"ding":2216,"ditional":2217,"ua":2218,"Ġtour":2219,"Ġfall":2220,"mer":2221,"travel":2222,"Ġlan":2223,"eries":2224,"ance":2225,"Ġcra":2226,"Ġdue":2227,"Ġnewn":2228,"Ġown":2229,"leaving":2230,"Ġtraditional":2231,"anytime":2232,"ens":2233,"Ġpersonal":2234,"Ġbad":2235,"Ġcorsic":2236,"Ġbuy":2237,"Ġfinches":2238,"Ġcatalan":2239,"Ġnewnham":2240,"Ġcorsica":2241,"rall":2242,"rala":2243,"ather":2244,"Ġlunch":2245,"Ġbot":2246,"Ġinvol":2247,"oodle":2248,"contact":2249,"itch":2250,"Ġalmost":2251,"Ġalpha":2252,"Ġcovered":2253,"iring":2254,"Ġworth":2255,"Ġdepartures":2256,"Ġconven":2257,"Ġnames":2258,"ology":2259,"Ġpaid":2260,"Ġcrossover":2261,"ropology":2262,"Ġconcerned":2263,"Ġfoll":2264,"Ġfancy":2265,"Ġsteakhouse":2266,"Ġanthropology":2267,"uarant":2268,"ap":2269,"ect":2270,"give":2271,"ject":2272,"known":2273,"none":2274,"never":2275,"tle":2276,"uh":2277,"Ġriver":2278,"Ġte":2279,"Ġass":2280,"ature":2281,"Ġwr":2282,"Ġnoodle":2283,"Ġhal":2284,"Ġsi":2285,"Ġgave":2286,"Ġmis":2287,"Ġwho":2288,"own":2289,"lyn":2290,"Ġdecide":2291,"why":2292,"Ġwelsh":2293,"Ġsomeone":2294,"whatever":2295,"Ġchea":2296,"Ġwest":2297,"Ġworking":2298,"Ġeng":2299,"Ġprobably":2300,"Ġactual":2301,"Ġhourly":2302,"Ġexpress":2303,"Ġdirectly":2304,"Ġbelfry":2305,"Ġobject":2306,"Ġlane":2307,"di":2308,"ear":2309,"tr":2310,"ten":2311,"teen":2312,"vian":2313,"Ġill":2314,"Ġscan":2315,"Ġdel":2316,"Ġgather":2317,"Ġwouldn":2318,"Ġreal":2319,"Ġdoing":2320,"ddle":2321,"Ġpricey":2322,"Ġless":2323,"Ġstaring":2324,"Ġalot":2325,"ters":2326,"Ġdeal":2327,"Ġafghan":2328,"Ġprevious":2329,"Ġprovides":2330,"Ġpolyn":2331,"Ġplough":2332,"Ġrosa":2333,"make":2334,"Ġquestion":2335,"Ġerit":2336,"Ġcurry":2337,"Ġfriends":2338,"Ġbased":2339,"mingham":2340,"Ġbotan":2341,"Ġwestside":2342,"Ġscand":2343,"Ġpolynesian":2344,"gian":2345,"ious":2346,"look":2347,"oint":2348,"ron":2349,"Ġfro":2350,"Ġpat":2351,"Ġhur":2352,"Ġla":2353,"Ġcle":2354,"trains":2355,"arn":2356,"Ġcancel":2357,"Ġem":2358,"pest":2359,"Ġpostcodes":2360,"Ġinform":2361,"Ġchi":2362,"Ġstick":2363,"Ġspecifics":2364,"Ġprovided":2365,"Ġunknown":2366,"bey":2367,"perhaps":2368,"Ġlatin":2369,"Ġappro":2370,"Ġriding":2371,"Ġaccommodation":2372,"Ġscheduled":2373,"Ġideal":2374,"Ġfig":2375,"wards":2376,"liar":2377,"Ġthroughout":2378,"Ġfamily":2379,"Ġfamiliar":2380,"inavian":2381,"Ġinquiring":2382,"Ġandrews":2383,"Ġcraving":2384,"Ġcheapest":2385,"Ġenglish":2386,"Ġscandinavian":2387,"cu":2388,"cil":2389,"market":2390,"pon":2391,"same":2392,"sur":2393,"wow":2394,"rean":2395,"Ġform":2396,"less":2397,"Ġanyway":2398,"xim":2399,"Ġcont":2400,"Ġrespon":2401,"Ġabbey":2402,"Ġsuper":2403,"Ġasking":2404,"Ġworld":2405,"Ġnarrowed":2406,"Ġfair":2407,"Ġfacil":2408,"mil":2409,"might":2410,"Ġmiddle":2411,"asian":2412,"Ġyo":2413,"Ġappoint":2414,"should":2415,"Ġideas":2416,"Ġhalls":2417,"Ġcompany":2418,"Ġhistory":2419,"Ġactivity":2420,"starting":2421,"brookes":2422,"Ġbirmingham":2423,"Ġquality":2424,"Ġcreative":2425,"Ġstansted":2426,"Ġaffordable":2427,"Ġwrong":2428,"Ġhalal":2429,"Ġgathering":2430,"Ġeritrean":2431,"Ġappointment":2432,"ag":2433,"aden":2434,"ks":2435,"ru":2436,"Ġtando":2437,"Ġaway":2438,"ating":2439,"Ġwal":2440,"Ġworry":2441,"Ġfolk":2442,"Ġpri":2443,"Ġtook":2444,"ors":2445,"Ġhot":2446,"Ġlow":2447,"Ġbring":2448,"Ġwide":2449,"Ġmut":2450,"ges":2451,"Ġstand":2452,"Ġleis":2453,"Ġstarts":2454,"iding":2455,"Ġparts":2456,"Ġste":2457,"Ġknown":2458,"Ġspecified":2459,"Ġcuisines":2460,"Ġunit":2461,"Ġexam":2462,"Ġkinds":2463,"Ġpossibil":2464,"Ġyear":2465,"success":2466,"Ġresturant":2467,"departing":2468,"Ġnewmarket":2469,"Ġameric":2470,"Ġclass":2471,"liple":2472,"Ġexpl":2473,"Ġjoh":2474,"Ġsouthern":2475,"Ġgastrop":2476,"Ġbroaden":2477,"rally":2478,"Ġsimil":2479,"Ġbotanic":2480,"Ġapproxim":2481,"Ġleisure":2482,"Ġexample":2483,"Ġpossibilities":2484,"Ġsimilar":2485,"cular":2486,"free":2487,"iving":2488,"ique":2489,"na":2490,"shouse":2491,"tre":2492,"Ġthir":2493,"ntown":2494,"Ġpet":2495,"Ġpub":2496,"ings":2497,"Ġbig":2498,"Ġdrop":2499,"Ġgiving":2500,"Ġneither":2501,"Ġmag":2502,"Ġworries":2503,"Ġvi":2504,"Ġfeature":2505,"wise":2506,"Ġperfectly":2507,"Ġplans":2508,"Ġcafe":2509,"Ġrestuarant":2510,"Ġgueshouse":2511,"Ġbelgian":2512,"arrival":2513,"Ġaustrala":2514,"Ġzip":2515,"Ġshortly":2516,"Ġopera":2517,"Ġactivities":2518,"Ġpassengers":2519,"Ġconvenient":2520,"Ġclear":2521,"surprise":2522,"Ġmutliple":2523,"Ġamericas":2524,"Ġaustralasian":2525,"bor":2526,"est":2527,"mind":2528,"press":2529,"room":2530,"ume":2531,"were":2532,"Ġrom":2533,"Ġter":2534,"atively":2535,"Ġfully":2536,"Ġsle":2537,"Ġsight":2538,"Ġforget":2539,"Ġdro":2540,"Ġrefer":2541,"Ġtax":2542,"isf":2543,"Ġreserving":2544,"Ġfoods":2545,"Ġinformationbooking":2546,"Ġoptional":2547,"Ġproper":2548,"Ġtried":2549,"Ġconvers":2550,"Ġunivers":2551,"Ġextra":2552,"Ġplay":2553,"Ġideally":2554,"cept":2555,"Ġscience":2556,"possi":2557,"Ġestablishments":2558,"Ġhungry":2559,"Ġbasque":2560,"ubs":2561,"going":2562,"Ġfinished":2563,"entrance":2564,"Ġsatisf":2565,"Ġbarbeque":2566,"Ġhurt":2567,"Ġtandoor":2568,"Ġgastropubs":2569,"Ġvict":2570,"again":2571,"band":2572,"fter":2573,"iod":2574,"oin":2575,"pt":2576,"vo":2577,"wntown":2578,"Ġpan":2579,"Ġpast":2580,"though":2581,"Ġhus":2582,"Ġly":2583,"anian":2584,"arry":2585,"Ġmod":2586,"fered":2587,"Ġdowntown":2588,"Ġeas":2589,"Ġalthough":2590,"Ġsuff":2591,"Ġdoesnt":2592,"Ġperiod":2593,"Ġvary":2594,"Ġtrips":2595,"Ġconne":2596,"Ġexcept":2597,"Ġadjust":2598,"Ġkindly":2599,"Ġaccomod":2600,"Ġparame":2601,"Ġdiscu":2602,"Ġtouch":2603,"Ġselection":2604,"poke":2605,"Ġtalking":2606,"Ġopenings":2607,"hope":2608,"Ġsingap":2609,"Ġinvolve":2610,"Ġexplore":2611,"Ġapproximately":2612,"Ġmagd":2613,"Ġromanian":2614,"Ġdropp":2615,"Ġconversation":2616,"Ġpanasian":2617,"Ġhusband":2618,"Ġparameters":2619,"Ġdiscuss":2620,"Ġsingapore":2621,"ak":2622,"ace":2623,"app":2624,"ned":2625,"night":2626,"omy":2627,"pm":2628,"under":2629,"Ġes":2630,"Ġave":2631,"ative":2632,"Ġwar":2633,"Ġwand":2634,"Ġfails":2635,"Ġpull":2636,"alene":2637,"vent":2638,"Ġland":2639,"ried":2640,"Ġsit":2641,"Ġind":2642,"Ġdrive":2643,"Ġgh":2644,"Ġmary":2645,"ummer":2646,"Ġatt":2647,"onest":2648,"nds":2649,"while":2650,"Ġabo":2651,"Ġkid":2652,"Ġstated":2653,"Ġwester":2654,"Ġrate":2655,"Ġotherwise":2656,"Ġunsure":2657,"ext":2658,"Ġresult":2659,"Ġsuits":2660,"Ġevent":2661,"Ġbites":2662,"Ġschedules":2663,"Ġgalleries":2664,"Ġconcerthalls":2665,"Ġexpand":2666,"Ġqueen":2667,"Ġcambri":2668,"Ġrelatively":2669,"Ġmisspoke":2670,"Ġaddenbrookes":2671,"Ġdepending":2672,"Ġdecided":2673,"Ġfollowing":2674,"Ġtech":2675,"Ġemail":2676,"Ġfigure":2677,"Ġresponse":2678,"Ġfeatures":2679,"possibly":2680,"Ġlynn":2681,"Ġsingaporean":2682,"Ġwestern":2683,"cc":2684,"cation":2685,"hic":2686,"lic":2687,"ms":2688,"mit":2689,"post":2690,"tely":2691,"ud":2692,"zil":2693,"Ġtree":2694,"really":2695,"inity":2696,"rary":2697,"Ġwed":2698,"Ġplu":2699,"cent":2700,"Ġhu":2701,"Ġhed":2702,"Ġbl":2703,"riving":2704,"Ġsm":2705,"lect":2706,"lebury":2707,"lecular":2708,"Ġmine":2709,"rank":2710,"Ġrec":2711,"icious":2712,"Ġexi":2713,"Ġarran":2714,"terrific":2715,"Ġshop":2716,"Ġstu":2717,"Ġgives":2718,"Ġmins":2719,"Ġmath":2720,"Ġworried":2721,"ments":2722,"door":2723,"Ġenjoyed":2724,"Ġprocess":2725,"Ġcentrally":2726,"Ġseeking":2727,"Ġhopefully":2728,"Ġchop":2729,"Ġacross":2730,"Ġmix":2731,"Ġcompletely":2732,"Ġgotten":2733,"Ġyeah":2734,"Ġvehic":2735,"Ġfavorites":2736,"Ġcause":2737,"Ġaddition":2738,"Ġpara":2739,"Ġpreferable":2740,"Ġlasts":2741,"hmmm":2742,"Ġlux":2743,"Ġdisapp":2744,"Ġspace":2745,"boat":2746,"Ġcharges":2747,"reser":2748,"Ġcountry":2749,"Ġgastron":2750,"Ġrelated":2751,"worth":2752,"Ġbrazil":2753,"Ġdelicious":2754,"Ġpublic":2755,"Ġuniversity":2756,"Ġmagdalene":2757,"Ġdropped":2758,"Ġexist":2759,"Ġvehicle":2760,"Ġgastronomy":2761,"Ġbrazilian":2762,"ac":2763,"clect":2764,"eal":2765,"fi":2766,"opp":2767,"van":2768,"Ġ$":2769,"Ġfif":2770,"Ġpul":2771,"Ġpunting":2772,"Ġtop":2773,"Ġnando":2774,"Ġcut":2775,"rious":2776,"Ġdriving":2777,"Ġlie":2778,"Ġlight":2779,"Ġocc":2780,"Ġrep":2781,"Ġret":2782,"Ġbenn":2783,"Ġdoz":2784,"Ġhelps":2785,"Ġwhip":2786,"ito":2787,"Ġelsewhere":2788,"Ġeclect":2789,"Ġwhats":2790,"ult":2791,"eep":2792,"Ġlocating":2793,"Ġnoon":2794,"howdy":2795,"Ġcentral":2796,"quito":2797,"Ġpickup":2798,"hib":2799,"Ġcheers":2800,"Ġwhenever":2801,"Ġexhib":2802,"Ġyard":2803,"Ġswim":2804,"whichever":2805,"Ġmolecular":2806,"Ġfix":2807,"Ġzeal":2808,"Ġwaiting":2809,"Ġvarious":2810,"Ġclubs":2811,"rookes":2812,"Ġcamp":2813,"Ġeastside":2814,"Ġsoul":2815,"Ġrestaraunt":2816,"Ġinqui":2817,"Ġattending":2818,"Ġgraf":2819,"Ġalternative":2820,"Ġmisunder":2821,"Ġstevan":2822,"Ġghand":2823,"Ġplus":2824,"Ġdisappoin":2825,"Ġpulled":2826,"Ġeclectic":2827,"Ġzealand":2828,"apes":2829,"aged":2830,"cing":2831,"call":2832,"greet":2833,"hm":2834,"ild":2835,"igh":2836,"kworth":2837,"nice":2838,"om":2839,"pin":2840,"rot":2841,"uter":2842,"ys":2843,"zion":2844,"Ġot":2845,"rate":2846,"Ġwat":2847,"Ġfrank":2848,"eld":2849,"ces":2850,"those":2851,"Ġhard":2852,"another":2853,"Ġcook":2854,"Ġsize":2855,"Ġdarry":2856,"ars":2857,"Ġrepe":2858,"Ġreta":2859,"Ġresol":2860,"Ġanyth":2861,"iment":2862,"Ġstazion":2863,"last":2864,"Ġwhite":2865,"peci":2866,"Ġarts":2867,"Ġdear":2868,"Ġrespect":2869,"comend":2870,"ify":2871,"osed":2872,"Ġvill":2873,"Ġlookout":2874,"hill":2875,"Ġsettle":2876,"Ġdowning":2877,"Ġadvent":2878,"milton":2879,"Ġrestraunt":2880,"Ġimpress":2881,"Ġconfusing":2882,"amore":2883,"cong":2884,"Ġcomputer":2885,"correct":2886,"Ġarrangements":2887,"ign":2888,"Ġsupposed":2889,"Ġswimmingpools":2890,"Ġjoin":2891,"Ġspots":2892,"Ġtalk":2893,"Ġmanaged":2894,"Ġattention":2895,"Ġsingle":2896,"nevermind":2897,"Ġpatience":2898,"Ġfairly":2899,"Ġfacilities":2900,"Ġoperation":2901,"Ġsleep":2902,"Ġeasy":2903,"Ġconnect":2904,"Ġdiscussed":2905,"Ġespeci":2906,"Ġwandlebury":2907,"Ġhedges":2908,"Ġcauseway":2909,"reservation":2910,"Ġfifteen":2911,"Ġwhipple":2912,"Ġstevanage":2913,"Ġghandi":2914,"greetings":2915,"Ġcookhouse":2916,"Ġstazione":2917,"Ġvillage":2918,"Ġespecially":2919,"eck":2920,"ft":2921,"fish":2922,"mor":2923,"man":2924,"pot":2925,"since":2926,"yea":2927,"Ġtur":2928,"Ġtext":2929,"indeed":2930,"raint":2931,"Ġian":2932,"Ġwo":2933,"Ġpos":2934,"oria":2935,"Ġhong":2936,"Ġcust":2937,"Ġsave":2938,"Ġsill":2939,"len":2940,"Ġins":2941,"Ġodd":2942,"Ġowe":2943,"Ġopin":2944,"Ġrese":2945,"Ġcanapes":2946,"esus":2947,"Ġmed":2948,"Ġanyone":2949,"Ġlens":2950,"Ġtast":2951,"thend":2952,"check":2953,"Ġarrived":2954,"ific":2955,"Ġserved":2956,"Ġsec":2957,"Ġstort":2958,"Ġmakes":2959,"Ġintend":2960,"iam":2961,"Ġeveryone":2962,"Ġproviding":2963,"Ġunless":2964,"Ġeatery":2965,"Ġeateries":2966,"Ġread":2967,"Ġrequired":2968,"Ġreachable":2969,"Ġmostly":2970,"Ġmove":2971,"Ġmovie":2972,"Ġappreciated":2973,"omer":2974,"Ġjesus":2975,"Ġkingfish":2976,"Ġlasting":2977,"sbrookes":2978,"Ġcompl":2979,"Ġhiston":2980,"Ġhistor":2981,"Ġanswer":2982,"Ġchosen":2983,"Ġquickly":2984,"Ġappealing":2985,"Ġdepends":2986,"Ġpassenger":2987,"Ġreasonable":2988,"Ġalternate":2989,"Ġassume":2990,"Ġchiquito":2991,"Ġprior":2992,"Ġjohn":2993,"borough":2994,"Ġvictoria":2995,"Ġwarkworth":2996,"Ġsitu":2997,"Ġabove":2998,"udamore":2999,"Ġparade":3000,"field":3001,"opping":3002,"Ġ$[":3003,"Ġinquiry":3004,"Ġfrankie":3005,"Ġrepeat":3006,"Ġrespectively":3007,"Ġcustomer":3008,"Ġopinion":3009,"Ġkingfisher":3010,"bul":3011,"bray":3012,"bridge":3013,"cue":3014,"city":3015,"gg":3016,"ise":3017,"ien":3018,"mely":3019,"mous":3020,"pb":3021,"pre":3022,"rdi":3023,"Ġx":3024,"Ġrow":3025,"Ġtre":3026,"Ġtreat":3027,"reg":3028,"ret":3029,"recommend":3030,"Ġavai":3031,"stood":3032,"Ġwou":3033,"Ġwine":3034,"Ġpunt":3035,"Ġtowards":3036,"ves":3037,"Ġhate":3038,"Ġhill":3039,"Ġlarge":3040,"ang":3041,"rite":3042,"Ġdon":3043,"Ġgu":3044,"read":3045,"Ġliking":3046,"ummy":3047,"Ġrent":3048,"Ġrece":3049,"bery":3050,"Ġoffered":3051,"Ġmer":3052,"Ġlear":3053,"rosa":3054,"uting":3055,"ulations":3056,"Ġorient":3057,"Ġguestroom":3058,"Ġshe":3059,"Ġsheep":3060,"Ġchar":3061,"Ġstrat":3062,"Ġring":3063,"weet":3064,"Ġvisitors":3065,"cks":3066,"ders":3067,"Ġconst":3068,"Ġdestinations":3069,"Ġcurious":3070,"Ġmatters":3071,"Ġextre":3072,"Ġadc":3073,"Ġfax":3074,"Ġfamous":3075,"mmas":3076,"Ġcomplex":3077,"Ġyummy":3078,"usday":3079,"ized":3080,"adden":3081,"Ġfunk":3082,"Ġmode":3083,"Ġjello":3084,"Ġhigher":3085,"ersborough":3086,"Ġluca":3087,"Ġbuild":3088,"Ġtrinity":3089,"Ġinjury":3090,"Ġregion":3091,"like":3092,"somewhere":3093,"Ġcabridge":3094,"Ġsaints":3095,"Ġaccept":3096,"Ġjob":3097,"Ġbishop":3098,"Ġissues":3099,"ratulations":3100,"Ġattend":3101,"Ġgrab":3102,"Ġappeals":3103,"world":3104,"Ġbarbecue":3105,"Ġfalls":3106,"Ġfollow":3107,"Ġriverboat":3108,"Ġpreviously":3109,"Ġstandsted":3110,"Ġpetersborough":3111,"Ġtandoori":3112,"Ġsuffice":3113,"Ġstuff":3114,"Ġluxury":3115,"Ġretur":3116,"Ġbenny":3117,"Ġcampus":3118,"Ġgrafton":3119,"Ġdisappointing":3120,"Ġretail":3121,"congratulations":3122,"Ġsilly":3123,"Ġresearch":3124,"Ġcompliment":3125,"rdige":3126,"Ġoriental":3127,"Ġstratford":3128,"Ġextremely":3129,"after":3130,"bal":3131,"bet":3132,"cb":3133,"gw":3134,"jah":3135,"shi":3136,"spot":3137,"sweet":3138,"telephone":3139,"yep":3140,"Ġau":3141,"Ġast":3142,"ined":3143,"rajah":3144,"Ġwan":3145,"Ġfir":3146,"Ġtoge":3147,"Ġtomor":3148,"thside":3149,"oops":3150,"Ġher":3151,"Ġline":3152,"eria":3153,"Ġbrou":3154,"Ġbummer":3155,"Ġcame":3156,"Ġsk":3157,"les":3158,"Ġinquire":3159,"Ġdai":3160,"Ġdish":3161,"Ġgl":3162,"Ġgir":3163,"Ġglo":3164,"Ġneat":3165,"Ġlimit":3166,"umping":3167,"Ġrege":3168,"Ġlearn":3169,"Ġleft":3170,"icient":3171,"Ġest":3172,"Ġallow":3173,"Ġsoonest":3174,"Ġcold":3175,"Ġcover":3176,"Ġleaveat":3177,"christ":3178,"Ġstayed":3179,"Ġarriveby":3180,"Ġwants":3181,"Ġshopping":3182,"Ġcontacted":3183,"mendous":3184,"Ġmaha":3185,"Ġstate":3186,"Ġdiff":3187,"Ġdifference":3188,"Ġtelling":3189,"Ġspeak":3190,"Ġunli":3191,"Ġunique":3192,"Ġlonger":3193,"Ġentertaining":3194,"with":3195,"Ġsport":3196,"Ġriders":3197,"shall":3198,"Ġcommuting":3199,"ferably":3200,"Ġhighest":3201,"Ġruns":3202,"imp":3203,"Ġsaying":3204,"Ġbarn":3205,"izzi":3206,"Ġfinal":3207,"Ġpleased":3208,"Ġrobbery":3209,"Ġselections":3210,"Ġhinch":3211,"Ġcurrent":3212,"Ġexperien":3213,"Ġspecializ":3214,"Ġmistaken":3215,"Ġcambrdige":3216,"Ġreasonably":3217,"Ġinvolving":3218,"itchen":3219,"Ġfront":3220,"Ġcontin":3221,"Ġfacility":3222,"Ġwalking":3223,"Ġhotspot":3224,"Ġlower":3225,"Ġjohns":3226,"Ġthirteen":3227,"Ġterri":3228,"Ġterrific":3229,"Ġsatisfied":3230,"Ġinvolved":3231,"Ġattem":3232,"Ġdozens":3233,"Ġadventure":3234,"Ġmedical":3235,"Ġlensfield":3236,"ifications":3237,"Ġsecure":3238,"Ġstortford":3239,"preferably":3240,"Ġtremendous":3241,"Ġpunter":3242,"Ġmercer":3243,"Ġcomplimentary":3244,"Ġtogether":3245,"Ġtomorrow":3246,"Ġdaily":3247,"Ġglobal":3248,"Ġmaharajah":3249,"Ġexperiencing":3250,"bour":3251,"cine":3252,"cina":3253,"dated":3254,"darn":3255,"folk":3256,"line":3257,"nu":3258,"ny":3259,"ncy":3260,"nivers":3261,"par":3262,"rt":3263,"Ġtel":3264,"Ġtea":3265,"Ġterm":3266,"Ġaut":3267,"Ġavo":3268,"inbrook":3269,"ract":3270,"Ġthur":3271,"Ġtherea":3272,"Ġful":3273,"Ġpain":3274,"ceed":3275,"standing":3276,"ues":3277,"oot":3278,"ingling":3279,"Ġannivers":3280,"Ġbank":3281,"ange":3282,"Ġcele":3283,"Ġcities":3284,"Ġcru":3285,"riate":3286,"Ġsimp":3287,"ley":3288,"Ġdi":3289,"Ġdu":3290,"Ġdial":3291,"Ġge":3292,"Ġgpb":3293,"Ġmar":3294,"Ġmich":3295,"Ġmall":3296,"Ġmarket":3297,"umber":3298,"Ġmenu":3299,"Ġhello":3300,"Ġamong":3301,"Ġlever":3302,"ndred":3303,"pee":3304,"these":3305,"Ġgoodnight":3306,"Ġallen":3307,"nology":3308,"Ġlol":3309,"Ġdecent":3310,"ghton":3311,"Ġgreatly":3312,"Ġmusue":3313,"Ġhamilton":3314,"Ġentire":3315,"kettle":3316,"Ġkitchen":3317,"ailed":3318,"Ġstop":3319,"Ġwherever":3320,"each":3321,"Ġvue":3322,"Ġvia":3323,"Ġproceed":3324,"Ġtotally":3325,"Ġboast":3326,"Ġboard":3327,"Ġlookup":3328,"feel":3329,"Ġcucina":3330,"Ġnarrowing":3331,"Ġoutside":3332,"Ġoutdoor":3333,"Ġadv":3334,"empo":3335,"asion":3336,"ased":3337,"Ġreaching":3338,"Ġchanging":3339,"Ġapprop":3340,"cise":3341,"adly":3342,"admission":3343,"Ġshows":3344,"Ġpostalcode":3345,"ness":3346,"neither":3347,"Ġdeterm":3348,"Ġfeeling":3349,"Ġsometimes":3350,"Ġdirection":3351,"Ġtrust":3352,"Ġtons":3353,"sbury":3354,"Ġscudamore":3355,"Ġchesteron":3356,"Ġpizzeria":3357,"Ġcompare":3358,"location":3359,"Ġmanag":3360,"Ġqualifications":3361,"Ġcreate":3362,"hold":3363,"Ġhandle":3364,"Ġwhole":3365,"looks":3366,"Ġlammas":3367,"Ġchild":3368,"iques":3369,"Ġgueshouses":3370,"Ġmodify":3371,"Ġcambride":3372,"postal":3373,"Ġhundred":3374,"Ġarranged":3375,"acorn":3376,"Ġcutting":3377,"Ġoccasion":3378,"Ġmisunderstood":3379,"Ġjoining":3380,"Ġturns":3381,"Ġlearner":3382,"Ġconstraint":3383,"Ġmoderat":3384,"between":3385,"Ġbroughton":3386,"Ġunlisted":3387,"Ġhinchinbrook":3388,"Ġcontinue":3389,"Ġterribly":3390,"Ġtremendously":3391,"Ġmercers":3392,"Ġterms":3393,"Ġavoid":3394,"Ġthereafter":3395,"Ġanniversary":3396,"Ġceleb":3397,"Ġsimply":3398,"Ġleverton":3399,"emporary":3400,"Ġappropriate":3401,"Ġmanager":3402,"ael":3403,"ari":3404,"bs":3405,"bered":3406,"cces":3407,"ger":3408,"kw":3409,"lot":3410,"min":3411,"round":3412,"sid":3413,"sadly":3414,"ticket":3415,"uge":3416,"uro":3417,"ww":3418,"zwill":3419,"Ġkettle":3420,"Ġtight":3421,"rey":3422,"rence":3423,"Ġago":3424,"ourite":3425,"ints":3426,"inating":3427,"rating":3428,"nth":3429,"nts":3430,"Ġwow":3431,"Ġfl":3432,"Ġfly":3433,"Ġfore":3434,"once":3435,"only":3436,"Ġph":3437,"Ġpr":3438,"Ġpot":3439,"Ġpla":3440,"Ġprom":3441,"Ġport":3442,"Ġtoward":3443,"Ġnic":3444,"Ġnume":3445,"oose":3446,"Ġhuh":3447,"Ġhonest":3448,"Ġhang":3449,"Ġlines":3450,"Ġbore":3451,"Ġbur":3452,"anely":3453,"Ġsor":3454,"Ġsell":3455,"Ġinc":3456,"Ġincon":3457,"Ġda":3458,"Ġdr":3459,"see":3460,"Ġgone":3461,"Ġnee":3462,"Ġneigh":3463,"Ġlive":3464,"lls":3465,"umford":3466,"Ġbooks":3467,"Ġmessage":3468,"days":3469,"Ġdojo":3470,"Ġonline":3471,"Ġwhose":3472,"Ġleic":3473,"Ġthankyou":3474,"Ġarr":3475,"Ġcol":3476,"ults":3477,"Ġplaced":3478,"church":3479,"change":3480,"choose":3481,"idge":3482,"Ġgold":3483,"formation":3484,"ifton":3485,"Ġkill":3486,"Ġprecise":3487,"Ġsent":3488,"Ġrd":3489,"osp":3490,"olina":3491,"dom":3492,"luck":3493,"Ġassisted":3494,"lled":3495,"Ġupdated":3496,"Ġlooked":3497,"quale":3498,"Ġpaying":3499,"Ġmatched":3500,"Ġhome":3501,"Ġfez":3502,"Ġpoints":3503,"Ġentertainments":3504,"Ġexchange":3505,"Ġacc":3506,"Ġadults":3507,"Ġclifton":3508,"best":3509,"Ġfasc":3510,"aster":3511,"abas":3512,"Ġitself":3513,"Ġya":3514,"ogue":3515,"Ġfavourite":3516,"Ġheart":3517,"ilee":3518,"rous":3519,"finches":3520,"Ġchurchill":3521,"Ġjun":3522,"Ġjub":3523,"Ġpasta":3524,"Ġpass":3525,"Ġclare":3526,"Ġcrossing":3527,"Ġnorfolk":3528,"Ġvacan":3529,"Ġlucky":3530,"cade":3531,"Ġregardless":3532,"Ġrandom":3533,"Ġaylesbury":3534,"Ġremembered":3535,"Ġmeans":3536,"Ġjoint":3537,"Ġconcerns":3538,"lock":3539,"Ġcategor":3540,"Ġantiques":3541,"Ġfoc":3542,"Ġputting":3543,"Ġclosed":3544,"Ġpasquale":3545,"Ġdeciding":3546,"Ġrealized":3547,"Ġwalk":3548,"Ġsights":3549,"Ġtaxis":3550,"Ġsatisfy":3551,"Ġvictim":3552,"Ġsufficient":3553,"Ġaccomodate":3554,"Ġavenue":3555,"Ġpulling":3556,"Ġevents":3557,"Ġcambrige":3558,"Ġtechnology":3559,"Ġsmall":3560,"Ġreccomend":3561,"Ġarranging":3562,"Ġmixed":3563,"rotur":3564,"Ġwater":3565,"Ġdarrys":3566,"Ġresolving":3567,"Ġinsanely":3568,"Ġhistorical":3569,"Ġbuildings":3570,"Ġreturn":3571,"Ġastrotur":3572,"Ġglitch":3573,"Ġcoldham":3574,"Ġdiffic":3575,"Ġbarnabas":3576,"cineworld":3577,"parking":3578,"Ġdistance":3579,"Ġdialogue":3580,"Ġgeor":3581,"Ġboasts":3582,"Ġadvance":3583,"Ġdetermine":3584,"ccesful":3585,"tickets":3586,"zwilliam":3587,"Ġflying":3588,"Ġnicely":3589,"Ġnumerous":3590,"Ġbored":3591,"Ġinconven":3592,"Ġleicaster":3593,"Ġfascinating":3594,"Ġjubilee":3595,"aurant":3596,"ack":3597,"away":3598,"ball":3599,"bummer":3600,"back":3601,"da":3602,"eg":3603,"fill":3604,"frame":3605,"gu":3606,"gon":3607,"gue":3608,"hood":3609,"hunting":3610,"hrs":3611,"idd":3612,"igin":3613,"jg":3614,"kely":3615,"mu":3616,"nical":3617,"oci":3618,"ped":3619,"pro":3620,"put":3621,"pard":3622,"sound":3623,"tes":3624,"tance":3625,"ught":3626,"va":3627,"vis":3628,"want":3629,"xb":3630,"xx":3631,"yne":3632,"zy":3633,"Ġvers":3634,"Ġtat":3635,"Ġtens":3636,"Ġarive":3637,"rage":3638,"Ġtha":3639,"stly":3640,"Ġfu":3641,"Ġfill":3642,"ond":3643,"Ġpor":3644,"elled":3645,"cester":3646,"Ġned":3647,"oring":3648,"than":3649,"thday":3650,"Ġhost":3651,"Ġhit":3652,"Ġhis":3653,"Ġlost":3654,"erbour":3655,"Ġboo":3656,"Ġbes":3657,"Ġbout":3658,"Ġbell":3659,"Ġblast":3660,"Ġcro":3661,"Ġcow":3662,"Ġcas":3663,"Ġsn":3664,"Ġsal":3665,"Ġforth":3666,"Ġforty":3667,"leigh":3668,"Ġincorrect":3669,"Ġdist":3670,"Ġdig":3671,"Ġgoo":3672,"Ġgran":3673,"Ġwise":3674,"Ġmumford":3675,"Ġlikes":3676,"Ġrema":3677,"Ġreport":3678,"Ġatta":3679,"Ġitine":3680,"arts":3681,"Ġambul":3682,"honestly":3683,"itive":3684,"itti":3685,"yesbray":3686,"Ġlevel":3687,"Ġtraining":3688,"ically":3689,"Ġecon":3690,"Ġtowns":3691,"Ġarcade":3692,"Ġstarving":3693,"Ġstarted":3694,"Ġtimeframe":3695,"Ġsol":3696,"inder":3697,"Ġnirala":3698,"Ġresaurant":3699,"take":3700,"irkw":3701,"Ġuno":3702,"Ġorigin":3703,"Ġguesth":3704,"Ġgod":3705,"kings":3706,"Ġmusic":3707,"form":3708,"fortable":3709,"Ġpartial":3710,"whats":3711,"velous":3712,"Ġchat":3713,"Ġkne":3714,"Ġkidd":3715,"Ġusually":3716,"ellow":3717,"Ġprefered":3718,"Ġserver":3719,"Ġservers":3720,"Ġstri":3721,"pite":3722,"Ġcetre":3723,"Ġnicer":3724,"Ġrates":3725,"Ġvice":3726,"Ġvolk":3727,"Ġvars":3728,"Ġenjoyable":3729,"Ġspending":3730,"Ġours":3731,"Ġcarolina":3732,"Ġcomfortable":3733,"Ġhomer":3734,"Ġhogw":3735,"Ġfitzwilliam":3736,"Ġsetting":3737,"Ġpersons":3738,"Ġadmit":3739,"Ġclient":3740,"Ġfast":3741,"Ġhospitals":3742,"Ġfewer":3743,"Ġyip":3744,"Ġyellow":3745,"person":3746,"Ġlatter":3747,"Ġcaught":3748,"cier":3749,"Ġbackwards":3750,"Ġdespite":3751,"Ġsending":3752,"adress":3753,"ties":3754,"enjoyed":3755,"teful":3756,"Ġmonth":3757,"gina":3758,"Ġcorn":3759,"Ġending":3760,"Ġjingling":3761,"Ġdetail":3762,"Ġdetailed":3763,"Ġtypo":3764,"arriving":3765,"Ġwished":3766,"Ġconsist":3767,"Ġnecessity":3768,"Ġfilled":3769,"Ġclarific":3770,"medi":3771,"Ġnorm":3772,"Ġnorman":3773,"Ġnorthend":3774,"Ġnorthside":3775,"Ġtrue":3776,"Ġspread":3777,"Ġgonna":3778,"Ġoffice":3779,"Ġhappens":3780,"Ġsooner":3781,"Ġvaries":3782,"Ġamenity":3783,"Ġconsidering":3784,"Ġtourists":3785,"Ġfriendly":3786,"Ġfarewell":3787,"Ġspecifying":3788,"Ġexciting":3789,"ffee":3790,"Ġswitch":3791,"Ġsouthend":3792,"Ġcambourne":3793,"Ġrestaur":3794,"Ġtalked":3795,"Ġbirthday":3796,"Ġgrateful":3797,"ential":3798,"Ġaddenbrook":3799,"Ġaddensbrookes":3800,"Ġhandy":3801,"Ġhandling":3802,"Ġandrew":3803,"Ġdecis":3804,"Ġtours":3805,"Ġsteakhouses":3806,"Ġassoci":3807,"Ġpatient":3808,"Ġcontemporary":3809,"Ġpricier":3810,"Ġresturants":3811,"Ġthirty":3812,"Ġpeterbour":3813,"Ġslee":3814,"Ġrefernce":3815,"Ġproperty":3816,"Ġproperties":3817,"Ġvarying":3818,"Ġaccomodations":3819,"Ġindust":3820,"Ġtechnical":3821,"Ġhuge":3822,"Ġblue":3823,"Ġexists":3824,"Ġliek":3825,"Ġexhibition":3826,"Ġexhibits":3827,"Ġmisunderstanding":3828,"Ġwatch":3829,"Ġresolve":3830,"Ġanythign":3831,"Ġwhitehill":3832,"Ġintended":3833,"Ġsituation":3834,"Ġsituated":3835,"regret":3836,"Ġguys":3837,"Ġrental":3838,"Ġreceive":3839,"Ġguestrooms":3840,"Ġfunky":3841,"Ġaudi":3842,"Ġwanna":3843,"Ġdishes":3844,"Ġgirton":3845,"Ġregent":3846,"Ġspecializes":3847,"Ġattempt":3848,"Ġautom":3849,"Ġfulfill":3850,"Ġmichael":3851,"Ġscudamores":3852,"Ġcelebrating":3853,"arily":3854,"ugese":3855,"Ġprince":3856,"Ġpotential":3857,"Ġburleigh":3858,"Ġdrin":3859,"Ġneighbor":3860,"Ġcategories":3861,"Ġfocus":3862,"Ġastroturf":3863,"Ġgeorgina":3864,"Ġinconvenience":3865,"huntington":3866,"pardon":3867,"Ġversa":3868,"Ġtension":3869,"Ġbeside":3870,"Ġremainder":3871,"Ġitinerary":3872,"Ġambulance":3873,"irkwood":3874,"Ġknew":3875,"Ġkidding":3876,"Ġvolksw":3877,"Ġvarsity":3878,"Ġhomerton":3879,"Ġhogwarts":3880,"Ġadmittance":3881,"Ġclarification":3882,"Ġassociated":3883,"regretfully":3884,"aww":3885,"bq":3886,"bt":3887,"but":3888,"based":3889,"cis":3890,"clock":3891,"dl":3892,"du":3893,"darry":3894,"dars":3895,"ese":3896,"every":3897,"found":3898,"fford":3899,"friend":3900,"gy":3901,"gan":3902,"gree":3903,"gly":3904,"har":3905,"hely":3906,"ios":3907,"ler":3908,"mo":3909,"mand":3910,"mosp":3911,"nic":3912,"ob":3913,"old":3914,"pa":3915,"pl":3916,"rse":3917,"rge":3918,"sl":3919,"sine":3920,"uel":3921,"ude":3922,"ugh":3923,"uly":3924,"vies":3925,"ye":3926,"yup":3927,"za":3928,"zz":3929,"zizzi":3930,"Ġumber":3931,"Ġtill":3932,"Ġawhile":3933,"inh":3934,"inci":3935,"rad":3936,"Ġthier":3937,"Ġive":3938,"still":3939,"Ġwet":3940,"Ġthemed":3941,"Ġfr":3942,"Ġfond":3943,"Ġpe":3944,"Ġpea":3945,"Ġpitch":3946,"Ġpumping":3947,"elves":3948,"alble":3949,"alex":3950,"almost":3951,"staurant":3952,"verall":3953,"Ġhook":3954,"Ġhmm":3955,"Ġlion":3956,"Ġlab":3957,"Ġlbs":3958,"Ġbound":3959,"Ġbite":3960,"Ġbinh":3961,"Ġisnt":3962,"Ġiscb":3963,"Ġcai":3964,"rill":3965,"Ġson":3966,"ote":3967,"Ġinde":3968,"Ġinthe":3969,"Ġindoor":3970,"eddars":3971,"Ġdive":3972,"sent":3973,"Ġgd":3974,"Ġgal":3975,"Ġgray":3976,"ayle":3977,"kes":3978,"Ġwild":3979,"Ġlively":3980,"Ġlite":3981,"Ġliked":3982,"Ġlikely":3983,"Ġoak":3984,"Ġoverall":3985,"gency":3986,"umm":3987,"uming":3988,"rand":3989,"rania":3990,"Ġrela":3991,"Ġrenown":3992,"Ġrecomend":3993,"Ġrecheck":3994,"Ġatmosp":3995,"sser":3996,"Ġmedi":3997,"Ġbee":3998,"Ġdoor":3999,"imeters":4000,"Ġstafford":4001,"Ġwhale":4002,"itude":4003,"Ġleg":4004,"Ġeleg":4005,"ication":4006,"Ġemer":4007,"Ġegg":4008,"Ġeuro":4009,"Ġeye":4010,"Ġerania":4011,"Ġtowne":4012,"thankyou":4013,"Ġarms":4014,"Ġnote":4015,"isers":4016,"Ġlovel":4017,"Ġnigh":4018,"Ġdemand":4019,"leaves":4020,"whel":4021,"Ġpostcodecb":4022,"forget":4023,"Ġsun":4024,"Ġsus":4025,"Ġserious":4026,"Ġshoot":4027,"ifi":4028,"ified":4029,"Ġtravelers":4030,"comm":4031,"Ġchines":4032,"Ġcheddars":4033,"Ġkirkwood":4034,"Ġmail":4035,"ense":4036,"Ġafterwards":4037,"Ġhasn":4038,"Ġsea":4039,"Ġstro":4040,"Ġstun":4041,"Ġperimeters":4042,"Ġnicest":4043,"Ġraise":4044,"Ġensure":4045,"Ġvol":4046,"Ġvie":4047,"went":4048,"Ġboss":4049,"Ġtakeaway":4050,"Ġcentere":4051,"Ġsuggested":4052,"Ġpostc":4053,"Ġcusine":4054,"Ġseen":4055,"Ġunfortun":4056,"Ġeats":4057,"aint":4058,"Ġdidnt":4059,"Ġconfuse":4060,"Ġadmiss":4061,"Ġfault":4062,"Ġfabul":4063,"Ġarcheology":4064,"Ġsystems":4065,"Ġkinda":4066,"Ġcloset":4067,"Ġgotta":4068,"Ġplanned":4069,"itecture":4070,"express":4071,"Ġrock":4072,"Ġrolls":4073,"Ġcap":4074,"oda":4075,"gladly":4076,"Ġlocals":4077,"Ġoverwhel":4078,"Ġopened":4079,"Ġjin":4080,"Ġ#[":4081,"Ġtimeslot":4082,"Ġimmedi":4083,"ightly":4084,"ightful":4085,"Ġrefrence":4086,"Ġwishes":4087,"Ġsays":4088,"Ġnecessarily":4089,"Ġlondons":4090,"Ġslightly":4091,"singly":4092,"Ġzizzi":4093,"consid":4094,"Ġcrossed":4095,"Ġslots":4096,"Ġdata":4097,"Ġfinally":4098,"uses":4099,"Ġforgotten":4100,"someone":4101,"Ġqueens":4102,"Ġdoubt":4103,"prisingly":4104,"Ġofferings":4105,"lovely":4106,"Ġreview":4107,"ffic":4108,"Ġmeantime":4109,"Ġsurround":4110,"Ġmainly":4111,"Ġcambidge":4112,"Ġrestau":4113,"Ġrestaru":4114,"Ġmissed":4115,"Ġselected":4116,"Ġbelfy":4117,"Ġobvious":4118,"Ġstanstead":4119,"Ġstanford":4120,"Ġbrasser":4121,"ensive":4122,"Ġteusday":4123,"Ġsister":4124,"Ġdelay":4125,"Ġdelightful":4126,"Ġhurry":4127,"Ġfiguring":4128,"Ġsupervis":4129,"agon":4130,"Ġwallet":4131,"Ġlowest":4132,"Ġstandard":4133,"Ġclassy":4134,"Ġoperating":4135,"Ġclearly":4136,"Ġreferring":4137,"Ġconnection":4138,"Ġaboard":4139,"Ġweds":4140,"Ġreccommend":4141,"Ġdozen":4142,"Ġfixed":4143,"Ġimpressive":4144,"reservations":4145,"Ġwont":4146,"Ġwold":4147,"Ġposcode":4148,"Ġpositive":4149,"Ġtaste":4150,"Ġhistoric":4151,"Ġavaialble":4152,"Ġcharged":4153,"addenbrookes":4154,"addensbrookes":4155,"Ġfollows":4156,"Ġresearching":4157,"Ġskoda":4158,"Ġestate":4159,"racted":4160,"Ġthurs":4161,"Ġcruisers":4162,"Ġmarvelous":4163,"Ġallenball":4164,"Ġmusuem":4165,"Ġcompared":4166,"Ġmoderatly":4167,"Ġkettles":4168,"Ġplaza":4169,"Ġportugese":4170,"Ġsorts":4171,"Ġsells":4172,"Ġdaugh":4173,"churchhill":4174,"Ġgolden":4175,"lucky":4176,"Ġjunction":4177,"Ġvacancy":4178,"Ġcoldhams":4179,"much":4180,"xbourne":4181,"Ġportra":4182,"Ġcrown":4183,"Ġdistracted":4184,"Ġgrande":4185,"Ġeconom":4186,"Ġsolid":4187,"Ġourselves":4188,"Ġclients":4189,"Ġyippee":4190,"personally":4191,"Ġrestaurnt":4192,"Ġpeterbourough":4193,"Ġsleeper":4194,"Ġdrinks":4195,"Ġbesides":4196,"Ġvolkswagon":4197,"alexander":4198,"Ġcaius":4199,"Ġdiverse":4200,"Ġliterally":4201,"Ġrelax":4202,"Ġrenowned":4203,"Ġatmosphere":4204,"Ġmedium":4205,"Ġelegant":4206,"Ġemergency":4207,"Ġlovell":4208,"Ġmailing":4209,"Ġstunning":4210,"Ġview":4211,"Ġunfortunate":4212,"Ġfabulous":4213,"Ġimmediately":4214,"consider":4215,"Ġsurrounding":4216,"Ġrestaruant":4217,"Ġdaughter":4218,"aking":4219,"bing":4220,"bro":4221,"bur":4222,"cl":4223,"cated":4224,"eon":4225,"fb":4226,"fir":4227,"fusion":4228,"gn":4229,"gs":4230,"guest":4231,"gbp":4232,"gned":4233,"hal":4234,"iu":4235,"ix":4236,"iet":4237,"ily":4238,"kind":4239,"lin":4240,"mw":4241,"mar":4242,"many":4243,"main":4244,"muse":4245,"mbridge":4246,"nre":4247,"ops":4248,"oah":4249,"pu":4250,"pare":4251,"pizz":4252,"pical":4253,"pature":4254,"si":4255,"sy":4256,"sican":4257,"saint":4258,"tot":4259,"uate":4260,"urious":4261,"vy":4262,"vue":4263,"vant":4264,"ware":4265,"wifi":4266,"woah":4267,"ying":4268,"Ġval":4269,"Ġvalue":4270,"Ġed":4271,"Ġtues":4272,"rew":4273,"Ġapart":4274,"Ġamend":4275,"Ġagree":4276,"inter":4277,"information":4278,"rable":4279,"rained":4280,"Ġthor":4281,"sti":4282,"stru":4283,"ates":4284,"Ġwrite":4285,"Ġfer":4286,"Ġfave":4287,"Ġflu":4288,"Ġfil":4289,"Ġfyne":4290,"Ġpal":4291,"Ġpress":4292,"Ġpare":4293,"Ġpie":4294,"eler":4295,"elber":4296,"elogy":4297,"men":4298,"als":4299,"stars":4300,"Ġnoo":4301,"ved":4302,"veral":4303,"orford":4304,"trance":4305,"thre":4306,"thin":4307,"ooh":4308,"ooth":4309,"Ġhos":4310,"Ġhea":4311,"Ġanf":4312,"Ġlco":4313,"urate":4314,"Ġbi":4315,"Ġbon":4316,"Ġbum":4317,"Ġbother":4318,"Ġbless":4319,"Ġbbq":4320,"ana":4321,"Ġcn":4322,"Ġcit":4323,"ria":4324,"rial":4325,"Ġsqu":4326,"Ġsna":4327,"Ġsign":4328,"Ġsense":4329,"Ġford":4330,"otic":4331,"lest":4332,"levant":4333,"Ġinput":4334,"Ġinstru":4335,"Ġdarn":4336,"Ġgrey":4337,"ken":4338,"key":4339,"Ġwil":4340,"cta":4341,"ctuate":4342,"rease":4343,"reaming":4344,"Ġnewh":4345,"Ġnewe":4346,"Ġlied":4347,"Ġlife":4348,"Ġhavea":4349,"Ġmon":4350,"Ġmotel":4351,"Ġlikewise":4352,"ummm":4353,"Ġrequ":4354,"Ġrelevant":4355,"Ġattra":4356,"Ġnumbe":4357,"Ġoften":4358,"Ġmess":4359,"Ġmeghan":4360,"Ġbeg":4361,"Ġanyplace":4362,"Ġdoable":4363,"Ġtraffic":4364,"Ġtheres":4365,"Ġwhil":4366,"Ġpleases":4367,"rocan":4368,"Ġwast":4369,"icinity":4370,"Ġemm":4371,"Ġetrance":4372,"Ġtownshi":4373,"perat":4374,"Ġgooday":4375,"Ġgoodness":4376,"reement":4377,"Ġalyesbray":4378,"Ġcozy":4379,"Ġcoffee":4380,"Ġload":4381,"Ġdefin":4382,"Ġdepature":4383,"Ġleaver":4384,"utes":4385,"utation":4386,"ulty":4387,"ched":4388,"chine":4389,"whale":4390,"Ġuber":4391,"Ġugly":4392,"idelber":4393,"Ġgosh":4394,"Ġabd":4395,"Ġnightl":4396,"houses":4397,"Ġsushi":4398,"Ġsuccesful":4399,"Ġsomewhat":4400,"Ġshot":4401,"Ġshare":4402,"ift":4403,"Ġtraveller":4404,"Ġashely":4405,"cessful":4406,"Ġentra":4407,"Ġentree":4408,"Ġentered":4409,"Ġcouldnt":4410,"Ġuser":4411,"Ġnope":4412,"Ġmachine":4413,"ssiere":4414,"Ġshouldn":4415,"Ġprepare":4416,"Ġstra":4417,"Ġstress":4418,"Ġstrot":4419,"Ġstorford":4420,"Ġround":4421,"Ġassigned":4422,"Ġavailabe":4423,"Ġminor":4424,"Ġintri":4425,"Ġperform":4426,"unication":4427,"Ġworkers":4428,"Ġdiffer":4429,"Ġrage":4430,"Ġrail":4431,"Ġvinci":4432,"Ġvicinity":4433,"iable":4434,"Ġcrite":4435,"Ġtrick":4436,"Ġspeaking":4437,"urs":4438,"urous":4439,"Ġboxbourne":4440,"Ġpicnic":4441,"Ġcityroom":4442,"Ġcars":4443,"Ġcodes":4444,"Ġpostco":4445,"Ġholy":4446,"Ġpoc":4447,"Ġsett":4448,"Ġinfomation":4449,"architecture":4450,"Ġexte":4451,"Ġexotic":4452,"Ġsearched":4453,"Ġsearches":4454,"Ġacron":4455,"iently":4456,"Ġadvice":4457,"Ġadvi":4458,"Ġadios":4459,"Ġclown":4460,"Ġrequesting":4461,"Ġquiet":4462,"Ġfaster":4463,"Ġcourt":4464,"Ġseating":4465,"Ġarchway":4466,"alrighty":4467,"clubs":4468,"Ġplane":4469,"Ġyu":4470,"Ġyelp":4471,"Ġyop":4472,"Ġapreci":4473,"Ġrose":4474,"Ġroles":4475,"ilton":4476,"mag":4477,"Ġhey":4478,"Ġheidelber":4479,"suggest":4480,"super":4481,"Ġloves":4482,"adc":4483,"ady":4484,"tih":4485,"Ġshown":4486,"Ġcineman":4487,"Ġcineworld":4488,"Ġdepartments":4489,"Ġunsuccesful":4490,"Ġfunny":4491,"test":4492,"Ġmoon":4493,"Ġmovies":4494,"ulties":4495,"Ġrestraint":4496,"Ġadded":4497,"Ġchanges":4498,"Ġrides":4499,"Ġcorsican":4500,"Ġaccommodating":4501,"nece":4502,"Ġcorrected":4503,"Ġcorrectly":4504,"into":4505,"risty":4506,"Ġmorrocan":4507,"Ġtypical":4508,"queen":4509,"Ġconsult":4510,"Ġuseful":4511,"Ġbudd":4512,"Ġbuff":4513,"Ġhearing":4514,"Ġzoo":4515,"Ġdiscount":4516,"Ġdisco":4517,"Ġdisag":4518,"Ġdisreg":4519,"Ġdislike":4520,"Ġnorway":4521,"Ġwheeler":4522,"Ġsplu":4523,"Ġroutes":4524,"Ġsortford":4525,"Ġvacation":4526,"Ġscreaming":4527,"Ġartwor":4528,"Ġcathar":4529,"Ġweeks":4530,"sometime":4531,"tom":4532,"Ġbusy":4533,"Ġregards":4534,"Ġcbr":4535,"Ġclarifying":4536,"istic":4537,"Ġranked":4538,"Ġerrors":4539,"Ġpurchased":4540,"Ġsupply":4541,"Ġhungting":4542,"ipt":4543,"ivity":4544,"located":4545,"science":4546,"scudamore":4547,"Ġbasic":4548,"Ġsouthside":4549,"Ġrecord":4550,"Ġhuts":4551,"Ġsurprisingly":4552,"Ġclosely":4553,"Ġfactor":4554,"Ġrestarant":4555,"Ġrestauarant":4556,"Ġarchaelogy":4557,"Ġschools":4558,"Ġcatching":4559,"Ġgardenia":4560,"Ġmissing":4561,"Ġshortening":4562,"Ġbelfrey":4563,"entry":4564,"Ġbrassiere":4565,"Ġmillers":4566,"Ġluncheon":4567,"Ġconvenience":4568,"Ġconveniently":4569,"uhm":4570,"Ġriverside":4571,"Ġassuming":4572,"Ġwrote":4573,"Ġhalf":4574,"Ġmiscomm":4575,"Ġbotanical":4576,"Ġcancelled":4577,"Ġinformat":4578,"Ġformal":4579,"Ġbringing":4580,"Ġsteve":4581,"Ġclassic":4582,"Ġclassical":4583,"Ġexploring":4584,"Ġapproximate":4585,"Ġexamples":4586,"Ġthird":4587,"Ġrestuarants":4588,"Ġzipcode":4589,"Ġsightsee":4590,"Ġmodel":4591,"Ġaccomodation":4592,"Ġinvolves":4593,"nights":4594,"Ġaverage":4595,"Ġpulls":4596,"Ġattitude":4597,"Ġblow":4598,"Ġbloom":4599,"Ġsmooth":4600,"Ġluxurious":4601,"boats":4602,"Ġliecester":4603,"Ġoccur":4604,"Ġreply":4605,"Ġreputation":4606,"Ġcampuses":4607,"Ġrestaraunts":4608,"Ġgrafitti":4609,"Ġdisappointed":4610,"ysical":4611,"lastly":4612,"Ġadventurous":4613,"Ġconnectivity":4614,"Ġinsist":4615,"Ġtasty":4616,"Ġtastes":4617,"Ġreceipt":4618,"Ġcomplexes":4619,"Ġbuilding":4620,"Ġreturned":4621,"Ġgirl":4622,"Ġlimited":4623,"Ġregency":4624,"Ġallows":4625,"christs":4626,"Ġspecializing":4627,"Ġattemp":4628,"Ġbankok":4629,"Ġducking":4630,"Ġmusuems":4631,"Ġhundreds":4632,"Ġflight":4633,"Ġphysical":4634,"Ġprompt":4635,"Ġhonestly":4636,"Ġincrease":4637,"Ġcolville":4638,"Ġaccurate":4639,"Ġreccomendation":4640,"Ġdifficulty":4641,"Ġdifficulties":4642,"gonville":4643,"probably":4644,"Ġthaks":4645,"Ġhostel":4646,"Ġcasual":4647,"Ġoriginal":4648,"Ġnormal":4649,"Ġaddenbrooks":4650,"Ġdecision":4651,"Ġindustrial":4652,"Ġautomob":4653,"Ġneighborhood":4654,"cisive":4655,"Ġlabelled":4656,"Ġindecisive":4657,"Ġgdp":4658,"aylesbray":4659,"Ġsundays":4660,"Ġvolvo":4661,"wenty":4662,"Ġpostcard":4663,"Ġobviously":4664,"Ġsupervisor":4665,"Ġportraits":4666,"Ġcrowne":4667,"Ġsleeperz":4668,"Ġrelaxing":4669,"close":4670,"kindly":4671,"museum":4672,"pizza":4673,"internet":4674,"Ġfluctuate":4675,"Ġparents":4676,"Ġlcoated":4677,"Ġblessed":4678,"Ġinstructions":4679,"Ġnewham":4680,"Ġnewest":4681,"Ġrequiring":4682,"Ġwhilst":4683,"Ġtownship":4684,"Ġstrotford":4685,"Ġcritera":4686,"Ġextend":4687,"Ġadvise":4688,"Ġyopu":4689,"Ġapreciate":4690,"Ġheidelberg":4691,"Ġdisagreement":4692,"Ġdisregard":4693,"Ġartworks":4694,"Ġsightseeing":4695,"Ġautomobile":4696,"''":4697,"ae":4698,"ade":4699,"add":4700,"arable":4701,"bb":4702,"bon":4703,"bel":4704,"bea":4705,"biz":4706,"bod":4707,"bster":4708,"brill":4709,"cf":4710,"cg":4711,"came":4712,"cally":4713,"cur":4714,"ccer":4715,"cam":4716,"dw":4717,"din":4718,"ded":4719,"dow":4720,"dir":4721,"dles":4722,"ef":4723,"ej":4724,"era":4725,"eed":4726,"ence":4727,"eps":4728,"ester":4729,"eraunt":4730,"fg":4731,"fr":4732,"fs":4733,"fu":4734,"fit":4735,"fly":4736,"fab":4737,"gr":4738,"gra":4739,"gment":4740,"gged":4741,"ground":4742,"grand":4743,"hl":4744,"hn":4745,"ht":4746,"hra":4747,"hat":4748,"ih":4749,"ij":4750,"io":4751,"iy":4752,"iat":4753,"ises":4754,"ja":4755,"jk":4756,"jor":4757,"jingling":4758,"kv":4759,"ky":4760,"kin":4761,"ker":4762,"kle":4763,"know":4764,"lit":4765,"lol":4766,"land":4767,"lier":4768,"mb":4769,"mple":4770,"mpa":4771,"ni":4772,"nook":4773,"nando":4774,"next":4775,"number":4776,"oa":4777,"ole":4778,"ople":4779,"orate":4780,"olen":4781,"pd":4782,"pf":4783,"pg":4784,"ph":4785,"pr":4786,"px":4787,"plea":4788,"pus":4789,"pad":4790,"qa":4791,"qq":4792,"rounds":4793,"sce":4794,"sive":4795,"sas":4796,"sight":4797,"tel":4798,"too":4799,"tem":4800,"trian":4801,"tical":4802,"tues":4803,"ument":4804,"ucks":4805,"ugue":4806,"vw":4807,"wc":4808,"wy":4809,"wou":4810,"wful":4811,"wice":4812,"wand":4813,"xa":4814,"xm":4815,"xq":4816,"ya":4817,"yot":4818,"yay":4819,"ysic":4820,"yfriend":4821,"ze":4822,"Ġ*":4823,"Ġ`":4824,"Ġould":4825,"Ġstin":4826,"Ġut":4827,"Ġought":4828,"Ġti":4829,"Ġtan":4830,"Ġten":4831,"Ġtall":4832,"Ġtie":4833,"Ġtex":4834,"Ġtil":4835,"Ġtep":4836,"Ġtend":4837,"Ġtig":4838,"Ġtemporary":4839,"Ġtwenty":4840,"Ġtwice":4841,"rel":4842,"ren":4843,"rest":4844,"rection":4845,"resh":4846,"Ġari":4847,"Ġage":4848,"Ġaid":4849,"Ġafer":4850,"Ġacom":4851,"Ġavi":4852,"Ġaim":4853,"Ġages":4854,"Ġawful":4855,"oul":4856,"oux":4857,"outh":4858,"ination":4859,"inet":4860,"ration":4861,"rated":4862,"Ġthous":4863,"Ġig":4864,"Ġik":4865,"Ġiron":4866,"Ġimag":4867,"Ġibiz":4868,"ntime":4869,"nture":4870,"stig":4871,"ater":4872,"atter":4873,"atform":4874,"youre":4875,"Ġyoud":4876,"Ġwarn":4877,"Ġwtih":4878,"Ġthee":4879,"Ġther":4880,"Ġtheme":4881,"Ġfre":4882,"Ġfel":4883,"Ġfri":4884,"Ġfot":4885,"Ġfour":4886,"Ġfish":4887,"Ġfight":4888,"Ġflo":4889,"Ġped":4890,"Ġpur":4891,"Ġpho":4892,"Ġpalan":4893,"Ġprot":4894,"Ġpinto":4895,"elene":4896,"meh":4897,"ceful":4898,"alour":4899,"alable":4900,"alpha":4901,"alasian":4902,"staying":4903,"Ġtoay":4904,"Ġtoyot":4905,"Ġna":4906,"Ġnu":4907,"Ġnue":4908,"Ġnature":4909,"Ġninet":4910,"orge":4911,"ordin":4912,"uey":4913,"thr":4914,"thier":4915,"oop":4916,"oovy":4917,"Ġhan":4918,"Ġhle":4919,"Ġhank":4920,"Ġhem":4921,"Ġhosp":4922,"Ġhtel":4923,"vals":4924,"Ġanim":4925,"Ġll":4926,"Ġln":4927,"Ġlap":4928,"ert":4929,"ering":4930,"ertain":4931,"Ġbr":4932,"Ġbri":4933,"Ġbay":4934,"Ġbok":4935,"Ġbright":4936,"Ġblo":4937,"Ġbmw":4938,"Ġbrew":4939,"Ġbnook":4940,"angh":4941,"ancy":4942,"anuel":4943,"Ġcoo":4944,"Ġcot":4945,"Ġcrow":4946,"Ġcult":4947,"rie":4948,"rity":4949,"Ġsum":4950,"Ġses":4951,"Ġswe":4952,"Ġsia":4953,"Ġsad":4954,"Ġself":4955,"Ġsick":4956,"Ġsens":4957,"Ġsized":4958,"Ġsuey":4959,"Ġfortun":4960,"otford":4961,"lens":4962,"Ġinbetween":4963,"Ġinfusion":4964,"courage":4965,"edbur":4966,"Ġdj":4967,"Ġdrea":4968,"Ġdad":4969,"Ġdale":4970,"Ġdilton":4971,"sex":4972,"sevent":4973,"several":4974,"Ġgla":4975,"Ġgain":4976,"Ġgem":4977,"Ġgas":4978,"Ġgyne":4979,"Ġgrill":4980,"Ġgift":4981,"Ġgrounds":4982,"Ġgorge":4983,"erean":4984,"arnt":4985,"arbury":4986,"cted":4987,"Ġthatn":4988,"Ġthatll":4989,"depe":4990,"Ġneuro":4991,"Ġlime":4992,"Ġliving":4993,"Ġlives":4994,"Ġos":4995,"Ġopit":4996,"Ġokey":4997,"lly":4998,"llage":4999,"llars":5000,"Ġmow":5001,"Ġmother":5002,"umble":5003,"Ġred":5004,"Ġreq":5005,"Ġrefere":5006,"Ġreco":5007,"Ġrecom":5008,"Ġretain":5009,"Ġrebook":5010,"Ġrebooked":5011,"Ġrevers":5012,"Ġremind":5013,"Ġredu":5014,"Ġrethin":5015,"Ġatlea":5016,"Ġbookm":5017,"ncertain":5018,"ssy":5019,"Ġmeat":5020,"Ġmeze":5021,"Ġbender":5022,"Ġbecame":5023,"cos":5024,"colle":5025,"cology":5026,"Ġanyways":5027,"Ġdoct":5028,"Ġdock":5029,"Ġdomain":5030,"Ġdollars":5031,"Ġamd":5032,"Ġstages":5033,"Ġstained":5034,"lammas":5035,"ita":5036,"iting":5037,"itions":5038,"Ġlex":5039,"Ġleich":5040,"Ġleiest":5041,"Ġlecester":5042,"Ġelab":5043,"owns":5044,"icine":5045,"icated":5046,"Ġeth":5047,"Ġeference":5048,"Ġeight":5049,"Ġepensive":5050,"Ġeff":5051,"Ġreferences":5052,"ndid":5053,"ndant":5054,"etit":5055,"Ġalls":5056,"pening":5057,"people":5058,"Ġarcon":5059,"Ġargu":5060,"Ġtag":5061,"Ġtampa":5062,"Ġtasce":5063,"Ġtacos":5064,"Ġali":5065,"Ġalley":5066,"Ġalert":5067,"plendid":5068,"Ġnotes":5069,"Ġnotch":5070,"Ġnotify":5071,"ised":5072,"isness":5073,"Ġsom":5074,"Ġsold":5075,"Ġsolo":5076,"Ġsoccer":5077,"terfly":5078,"Ġcops":5079,"Ġcollage":5080,"Ġlobster":5081,"Ġnil":5082,"stined":5083,"Ġdest":5084,"Ġdestined":5085,"Ġpeopl":5086,"Ġpeoples":5087,"Ġbyart":5088,"Ġbyard":5089,"utton":5090,"uttle":5091,"ulous":5092,"Ġlocally":5093,"iroom":5094,"whoa":5095,"Ġurge":5096,"Ġuncertain":5097,"idance":5098,"Ġgreater":5099,"Ġgoon":5100,"Ġgoden":5101,"Ġabou":5102,"Ġparing":5103,"Ġmusl":5104,"Ġwelome":5105,"fort":5106,"Ġsuite":5107,"Ġsucessful":5108,"actory":5109,"cannot":5110,"Ġshab":5111,"Ġshops":5112,"Ġshadd":5113,"Ġshangh":5114,"Ġshuttle":5115,"Ġwelcomed":5116,"surely":5117,"ife":5118,"ifferent":5119,"Ġtraveler":5120,"Ġasbury":5121,"Ġbutterfly":5122,"Ġcontacts":5123,"iced":5124,"inent":5125,"Ġrecommending":5126,"Ġlease":5127,"elling":5128,"Ġnoddle":5129,"Ġmam":5130,"Ġmaint":5131,"Ġmahal":5132,"Ġmajor":5133,"enance":5134,"iveristy":5135,"ideration":5136,"Ġsecu":5137,"Ġsepa":5138,"Ġstree":5139,"Ġstur":5140,"Ġstating":5141,"Ġsteep":5142,"Ġstolen":5143,"Ġstotford":5144,"Ġweel":5145,"Ġweather":5146,"Ġwebs":5147,"Ġrus":5148,"Ġknowing":5149,"ources":5150,"tions":5151,"Ġmusems":5152,"Ġmini":5153,"Ġminton":5154,"Ġminim":5155,"Ġmintues":5156,"arently":5157,"Ġcenre":5158,"Ġwhereas":5159,"olia":5160,"Ġperfer":5161,"unfortun":5162,"univers":5163,"Ġmyster":5164,"Ġrain":5165,"Ġrave":5166,"Ġtells":5167,"dont":5168,"Ġvs":5169,"Ġvan":5170,"Ġenjoys":5171,"fod":5172,"Ġinterenet":5173,"ias":5174,"iant":5175,"Ġcrime":5176,"Ġcristi":5177,"Ġcritical":5178,"Ġvisits":5179,"Ġintersted":5180,"Ġtrian":5181,"Ġspecta":5182,"ledge":5183,"urday":5184,"Ġspecifcally":5185,"Ġbox":5186,"Ġboyfriend":5187,"Ġcentr":5188,"Ġcentre":5189,"Ġcentra":5190,"Ġeverybod":5191,"Ġcond":5192,"Ġconference":5193,"Ġconver":5194,"Ġconvo":5195,"Ġconcent":5196,"Ġconformation":5197,"Ġcard":5198,"Ġpicks":5199,"fez":5200,"Ġposto":5201,"Ġhop":5202,"allright":5203,"Ġchef":5204,"Ġcareful":5205,"Ġsurely":5206,"Ġtoodles":5207,"Ġunrated":5208,"Ġuniveristy":5209,"Ġlonely":5210,"Ġeaten":5211,"Ġarrivals":5212,"Ġcosting":5213,"Ġcostly":5214,"Ġenterta":5215,"Ġfender":5216,"Ġpops":5217,"Ġexpen":5218,"Ġexpens":5219,"Ġrighty":5220,"Ġacquire":5221,"Ġadult":5222,"Ġgladly":5223,"Ġclin":5224,"Ġclso":5225,"Ġclowns":5226,"ems":5227,"Ġseated":5228,"Ġreader":5229,"Ġreastaurant":5230,"Ġplatform":5231,"Ġmil":5232,"Ġmiles":5233,"Ġnearly":5234,"Ġsytem":5235,"Ġearlest":5236,"abil":5237,"Ġproblems":5238,"Ġcloses":5239,"Ġcloseby":5240,"Ġheads":5241,"Ġplaning":5242,"iana":5243,"Ġye":5244,"Ġyi":5245,"Ġyt":5246,"Ġyor":5247,"Ġyello":5248,"izi":5249,"Ġvegan":5250,"Ġventure":5251,"Ġbase":5252,"Ġapparently":5253,"made":5254,"Ġhep":5255,"Ġdiner":5256,"Ġsporting":5257,"Ġsporty":5258,"Ġcage":5259,"Ġcaridge":5260,"cial":5261,"cies":5262,"Ġlaters":5263,"Ġdesign":5264,"Ġdesperat":5265,"adde":5266,"ados":5267,"tial":5268,"Ġquesthouse":5269,"Ġcineme":5270,"Ġshortest":5271,"Ġrich":5272,"redi":5273,"Ġgroups":5274,"Ġrestating":5275,"Ġresteraunt":5276,"Ġgroupon":5277,"shite":5278,"Ġaddmission":5279,"Ġcommit":5280,"finally":5281,"Ġconfirming":5282,"Ġaccomid":5283,"Ġaccomad":5284,"Ġhiking":5285,"Ġconcerning":5286,"Ġconcerts":5287,"omes":5288,"Ġlocale":5289,"Ġsuites":5290,"Ġsuccessf":5291,"Ġcorkhouse":5292,"Ġoverlook":5293,"Ġovernight":5294,"Ġoversight":5295,"Ġchurchhill":5296,"Ġja":5297,"Ġju":5298,"Ġjot":5299,"Ġjig":5300,"Ġjud":5301,"Ġjumping":5302,"Ġjedbur":5303,"ney":5304,"near":5305,"Ġcorrecting":5306,"unte":5307,"Ġimpossi":5308,"Ġsaf":5309,"Ġsaw":5310,"Ġsample":5311,"Ġdescribe":5312,"education":5313,"Ġpapad":5314,"Ġlastly":5315,"Ġmorden":5316,"vily":5317,"Ġtyping":5318,"Ġmentioning":5319,"Ġrefine":5320,"imated":5321,"Ġconsideration":5322,"Ġident":5323,"Ġbuisness":5324,"Ġclair":5325,"Ġslide":5326,"Ġbelieving":5327,"Ġbarrel":5328,"conne":5329,"confir":5330,"Ġdisconne":5331,"Ġtrumping":5332,"Ġtruly":5333,"Ġspelling":5334,"Ġeager":5335,"Ġregret":5336,"Ġhappening":5337,"Ġthru":5338,"Ġthrusday":5339,"Ġbeds":5340,"list":5341,"lied":5342,"Ġscra":5343,"Ġscale":5344,"Ġscatter":5345,"Ġkeeps":5346,"Ġwonderfully":5347,"Ġcather":5348,"Ġhappened":5349,"Ġtouristy":5350,"Ġcabs":5351,"ridgeshi":5352,"Ġdrivers":5353,"Ġshortford":5354,"ials":5355,"Ġunaware":5356,"Ġrang":5357,"Ġranged":5358,"Ġranger":5359,"Ġstyles":5360,"Ġcompan":5361,"Ġcomparable":5362,"cording":5363,"Ġexcuse":5364,"Ġexcurs":5365,"Ġpizzaria":5366,"Ġvaried":5367,"amazing":5368,"Ġestablished":5369,"Ġdoubled":5370,"Ġalesbray":5371,"Ġchristi":5372,"Ġchrists":5373,"Ġdancing":5374,"Ġarchitecturally":5375,"Ġantolia":5376,"Ġthoughts":5377,"Ġanswers":5378,"Ġfoe":5379,"ributes":5380,"safe":5381,"Ġputs":5382,"ratch":5383,"Ġfactors":5384,"Ġspecials":5385,"Ġcambridgeshi":5386,"Ġgastro":5387,"Ġbistros":5388,"Ġmanage":5389,"Ġreliable":5390,"Ġmidnight":5391,"Ġrude":5392,"Ġnevermind":5393,"entertain":5394,"Ġqualities":5395,"Ġdepend":5396,"Ġhands":5397,"Ġhandful":5398,"Ġhandled":5399,"Ġbrah":5400,"Ġsteak":5401,"Ġmillion":5402,"Ġbrother":5403,"Ġsatru":5404,"Ġolds":5405,"Ġanthing":5406,"Ġalternatively":5407,"Ġcrazy":5408,"Ġbottom":5409,"Ġteh":5410,"Ġassit":5411,"Ġmisread":5412,"Ġmisinformation":5413,"earlier":5414,"Ġrealize":5415,"Ġrealistic":5416,"Ġdeals":5417,"Ġeriterean":5418,"Ġclean":5419,"Ġemailed":5420,"Ġchips":5421,"Ġideals":5422,"Ġfigured":5423,"Ġcontract":5424,"Ġrespond":5425,"Ġresponses":5426,"Ġtandoon":5427,"Ġstandby":5428,"Ġyears":5429,"Ġclassified":5430,"naw":5431,"Ġoperate":5432,"roomz":5433,"Ġreferral":5434,"Ġreferrence":5435,"Ġuniversities":5436,"Ġplaying":5437,"Ġsatisfactory":5438,"Ġmodrate":5439,"Ġeasier":5440,"Ġadjusted":5441,"Ġmagdelene":5442,"Ġdropping":5443,"understood":5444,"Ġwandered":5445,"Ġlandmar":5446,"Ġsitting":5447,"Ġindifferent":5448,"Ġindiana":5449,"Ġdriven":5450,"Ġmarys":5451,"Ġattributes":5452,"centre":5453,"Ġsmart":5454,"Ġstuck":5455,"Ġmaths":5456,"Ġmixup":5457,"Ġparace":5458,"reserve":5459,"Ġcuts":5460,"Ġrephra":5461,"Ġretrie":5462,"Ġbennys":5463,"Ġinquiries":5464,"Ġretaurant":5465,"Ġanythin":5466,"Ġanythig":5467,"Ġwhitehouse":5468,"Ġsettles":5469,"Ġrestraunts":5470,"Ġturn":5471,"Ġsaved":5472,"Ġoddly":5473,"Ġmedicine":5474,"Ġstortfod":5475,"Ġpriority":5476,"Ġxxx":5477,"Ġtreating":5478,"Ġavaible":5479,"Ġwoul":5480,"Ġwoudl":5481,"Ġwouold":5482,"Ġguide":5483,"Ġguidance":5484,"Ġlearning":5485,"Ġcharming":5486,"Ġfaxed":5487,"Ġmodest":5488,"Ġgrabbing":5489,"Ġfollowed":5490,"Ġfirm":5491,"Ġskip":5492,"Ġestimated":5493,"christi":5494,"Ġauto":5495,"Ġthurday":5496,"Ġpaint":5497,"Ġcruises":5498,"Ġdude":5499,"Ġmarger":5500,"Ġboarding":5501,"Ġchildren":5502,"Ġmoderatley":5503,"Ġcelebrate":5504,"lots":5505,"mins":5506,"sidney":5507,"Ġforever":5508,"Ġphysic":5509,"Ġplants":5510,"Ġincredi":5511,"Ġneeed":5512,"Ġarrving":5513,"Ġcollea":5514,"Ġsentence":5515,"Ġhomemade":5516,"Ġpasscode":5517,"Ġvacancies":5518,"Ġglitched":5519,"guing":5520,"Ġfunds":5521,"Ġfussy":5522,"Ġfills":5523,"Ġcash":5524,"Ġsalon":5525,"Ġgoobye":5526,"Ġattached":5527,"Ġguesthomes":5528,"Ġstrikes":5529,"Ġconsistent":5530,"Ġofficer":5531,"Ġswitched":5532,"Ġaddenbrooke":5533,"Ġdecisions":5534,"Ġautomated":5535,"Ġfocused":5536,"everyone":5537,"modern":5538,"plan":5539,"Ġpeas":5540,"Ġpeaceful":5541,"Ġeurology":5542,"Ġnighclubs":5543,"Ġdemands":5544,"Ġsussex":5545,"Ġseriously":5546,"Ġseason":5547,"Ġstroll":5548,"Ġstrover":5549,"Ġadmissions":5550,"Ġadmissoin":5551,"Ġcapable":5552,"Ġcapabil":5553,"Ġoverwhelmed":5554,"Ġoverwhelming":5555,"Ġjinling":5556,"Ġjinlin":5557,"Ġrestauant":5558,"Ġrestauarnt":5559,"Ġbrasseri":5560,"Ġbrasserie":5561,"Ġeconomical":5562,"Ġeconomically":5563,"Ġrestaruants":5564,"guesthouses":5565,"total":5566,"Ġvalued":5567,"Ġamended":5568,"Ġagreeable":5569,"Ġthorough":5570,"Ġferret":5571,"Ġfaves":5572,"Ġpalce":5573,"Ġpieces":5574,"Ġheavily":5575,"Ġbonus":5576,"Ġbumped":5577,"Ġcitiroom":5578,"Ġsqualour":5579,"Ġinputting":5580,"Ġmonument":5581,"Ġbegun":5582,"Ġemmanuel":5583,"Ġdefinately":5584,"Ġnightlife":5585,"Ġstraight":5586,"Ġintriguing":5587,"Ġdiffernt":5588,"Ġcityrooms":5589,"Ġpostcod":5590,"Ġpocket":5591,"Ġsettled":5592,"Ġquieter":5593,"Ġbuddha":5594,"Ġdiscovered":5595,"Ġsplurge":5596,"Ġcatharine":5597,"Ġhungtington":5598,"scudamores":5599,"Ġrestarants":5600,"Ġmiscommunication":5601,"Ġsmoothly":5602,"Ġgirlfriend":5603,"Ġattempted":5604,"Ġextended":5605,"beautiful":5606,"brilliant":5607,"downtown":5608,"fabulous":5609,"groovy":5610,"iatric":5611,"little":5612,"pleasure":5613,"uguese":5614,"woudl":5615,"Ġstinks":5616,"Ġtanh":5617,"Ġtexting":5618,"Ġtepin":5619,"Ġtiger":5620,"Ġavialable":5621,"Ġthousand":5622,"Ġimagine":5623,"Ġibiza":5624,"Ġfelix":5625,"Ġfloor":5626,"Ġpediatric":5627,"Ġpalance":5628,"Ġtoyota":5629,"Ġnuero":5630,"Ġnineteen":5631,"Ġhanging":5632,"Ġhlep":5633,"Ġhemp":5634,"Ġhosptial":5635,"Ġanimals":5636,"Ġblocks":5637,"Ġbrewery":5638,"Ġcotta":5639,"Ġculture":5640,"Ġsesame":5641,"Ġsiagon":5642,"Ġfortunate":5643,"lensfield":5644,"Ġglass":5645,"Ġgynecology":5646,"Ġgorgeous":5647,"Ġneuroscience":5648,"Ġopitions":5649,"Ġmowbray":5650,"Ġreferenece":5651,"Ġrecommen":5652,"Ġreversed":5653,"Ġrethinking":5654,"Ġatleast":5655,"Ġleichester":5656,"Ġleiester":5657,"Ġelaborate":5658,"Ġeighteen":5659,"Ġefficient":5660,"Ġargument":5661,"Ġurgently":5662,"Ġmuslim":5663,"Ġshabby":5664,"Ġshanghai":5665,"Ġmaintenance":5666,"Ġmajority":5667,"Ġsecurity":5668,"Ġsturton":5669,"Ġwebsite":5670,"Ġruskin":5671,"Ġminimum":5672,"unfortunat":5673,"university":5674,"Ġspectacular":5675,"Ġeverybody":5676,"Ġconcentrate":5677,"Ġexpense":5678,"Ġdesignation":5679,"Ġdesperately":5680,"Ġoverlooked":5681,"Ġjudgment":5682,"Ġimpossible":5683,"Ġpapadoux":5684,"Ġtrumpington":5685,"Ġcatherine":5686,"Ġcambridgeshire":5687,"entertainment":5688,"Ġsatruday":5689,"Ġlandmarks":5690,"Ġrephrase":5691,"Ġmargerita":5692,"Ġcitiroomz":5693},"merges":["Ġ t","r e","Ġ a","o u","i n","Ġ [","r a","Ġ .","Ġt h","Ġ i","n t","s t","a t","y ou","Ġ you","Ġ w","Ġth e","Ġ f","o n","Ġ p","e l","m e","c e","Ġ ?","a l","st a","Ġt o","Ġ n","v e","o r","t ra","u e","t h","o o","Ġ h","Ġ ,","in g","v al","Ġa n","Ġ l","val ue","e r","u ra","re sta","ura nt","resta urant","Ġ b","Ġi s","a n","Ġ c","r i","Ġ s","Ġf or","o t","l e","i on","Ġ in","tra in","c ou","e d","a ve","cou nt","Ġ d","s e","l d","ou ld","Ġ g","a y","oo k","Ġan d","ot el","e re","a r","k e","Ġw ould","Ġw i","c t","Ġth at","re a","ri ce","d e","a me","Ġn e","h otel","Ġl i","Ġh ave","Ġ o","n ame","l l","Ġ m","g e","Ġli ke","Ġne ed","oo d","u m","ra n","Ġ re","Ġa t","ct ion","f ere","Ġb ook","tra ction","b er","Ġn um","Ġnum ber","Ġc an","n ce","ran ge","s s","an k","Ġo f","Ġa re","fere nce","a rea","e s","at ion","at traction","Ġ me","d ay","Ġb e","c o","Ġan y","Ġd o","Ġi t","p rice","ar t","Ġ !","on e","Ġ on","Ġh el","Ġa m","Ġhel p","Ġyou r","h one","le a","i me","Ġt ra","Ġ sta","Ġthe re","lea se","l a","th ing","Ġw h","Ġp lease","Ġwi th","price range","d d","re ss","u re","dd ress","Ġ restaurant","o st","ri ve","ook ing","Ġwi ll","i t","y es","Ġp rice","b y","Ġl e","Ġ -","p art","r o","Ġw a","Ġtra in","Ġ el","Ġel se","la ce","Ġany thing","Ġth ank","o w","w n","b le","i c","co de","re ference","ost code","Ġ e","r y","Ġl ooking","Ġre ference","n d","e t","Ġto wn","Ġh otel","Ġd ay","Ġa ll","p e","th ank","f ood","Ġa r","Ġt a","Ġsta r","Ġwh at","Ġt ime","re at","th e","ro m","Ġp hone","Ġf rom","s o","Ġg ood","re e","Ġa l","g h","Ġa rea","Ġf ree","p le","Ġn ot","i s","x i","Ġs o","t er","l y","Ġc o","Ġal so","n o","in d","p hone","part ure","Ġl o","Ġ range","Ġn i","st in","Ġd e","stin ation","gh t","e o","Ġle ave","th ere","Ġp eo","Ġpeo ple","Ġb y","u t","Ġre s","u l","t ime","Ġp lace","le ave","leave at","c h","Ġa ddress","ue st","Ġres er","a ddress","Ġf ood","t a","ou t","Ġlo c","Ġsta y","i r","Ġar rive","y pe","ar rive","arrive by","w h","de parture","Ġp ostcode","de stination","Ġ u","Ġwa s","i d","Ġg reat","Ġwa nt","Ġf ind","Ġto day","by e","ou se","Ġ or","Ġg uest","o k","Ġg o","Ġa b","ou nd","k ing","Ġp ar","Ġab out","Ġg et","Ġm u","Ġgood bye","Ġw el","v ing","e e","th er","f or","Ġni ght","Ġloc at","h ouse","Ġguest house","Ġlocat ed","Ġs u","Ġp art","Ġso me","Ġpar king","p lace","v ation","Ġs er","Ġreser vation","f ul","th at","Ġthank s","p ostcode","m ation","wh at","t ing","Ġta ble","train id","a ct","c an","Ġde part","Ġs h","Ġthe ir","Ġin for","Ġt ype","Ġinfor mation","co me","v el","Ġbook ed","Ġnight s","ta xi","Ġwel come","Ġh a","s ure","Ġi f","i f","Ġbook ing","Ġta xi","ound s","Ġtra vel","u st","Ġa s","f er","co m","Ġb ut","an y","ce ss","Ġe nt","j ust","Ġc h","Ġc ould","nt act","Ġco ntact","ok ay","i ce","c cess","in e","Ġf ee","me nd","com mend","Ġre commend","Ġle a","Ġt ry","ve ry","ke t","ic ket","Ġt icket","Ġ k","Ġlea ving","Ġh ow","Ġa f","or ry","Ġu s","Ġ just","el l","ccess ful","Ġn o","Ġm any","Ġm a","Ġwi f","ss i","e n","Ġat traction","Ġwif i","Ġsh ould","Ġp re","Ġaf ter","o re","i ve","Ġprice d","Ġser ve","Ġha s","i de","Ġmu ch","Ġsu ccessful","Ġs e","g reat","h ow","Ġdo es","a i","Ġthe y","Ġpre fer","Ġ st","Ġs orry","Ġth is","Ġc al","Ġg ive","n ow","Ġw e","Ġ r","Ġk now","al ly","Ġp reference","ran ce","v ai","vai la","o s","Ġent rance","Ġleave s","Ġa ssi","Ġma ke","Ġstar ting","ou r","Ġa vaila","t ion","ic h","Ġmu se","Ġmuse um","thank s","p it","pit al","os pital","' ll","Ġar ri","Ġm ore","Ġavaila ble","Ġm in","oo m","Ġr oom","a re","Ġ ce","Ġmin ut","p tion","Ġm at","Ġs ame","Ġwh ere","o l","Ġw or","Ġin t","j o","ta in","Ġsome thing","Ġminut es","Ġwh ich","Ġp er","Ġdepart ing","jo y","u n","Ġarrive s","Ġni ce","Ġserve s","t ype","Ġo ption","Ġm y","e a","Ġwor k","Ġ very","b ooking","Ġd if","Ġtrain s","Ġreser ve","fere nt","Ġdif ferent","Ġgo ing","Ġ ra","o ther","Ġt ell","me nt","Ġan other","Ġe n","Ġm ay","Ġticket s","o se","d o","Ġ v","Ġstar s","Ġneed ed","h ospital","l u","Ġen joy","Ġoption s","f o","Ġint ere","Ġintere st","w e","i a","Ġst ation","ul ar","Ġn ow","Ġp ro","Ġs ounds","c lu","you r","Ġassi st","l le","Ġc ri","n et","Ġs ide","ter ia","Ġcri teria","it y","ol ice","Ġp ounds","Ġo ther","it e","is it","Ġv isit","Ġin ter","Ġinter net","ea d","Ġus ing","Ġu p","Ġpart ic","Ġpartic ular","Ġco lle","Ġcolle ge","el y","Ġt ri","Ġs pe","le d","Ġthe m","Ġtri p","Ġra ting","Ġspe c","a ble","Ġcal led","r tain","u r","p p","Ġspec if","Ġto t","Ġde parture","Ġtot al","Ġa ble","Ġb o","c k","Ġp ic","Ġarri ving","b p","Ġg bp","Ġwel l","Ġle t","Ġc ity","Ġspecif ic","Ġta ke","Ġce nt","u ally","Ġe very","Ġguesthouse s","Ġ our","ri ght","Ġf ine","Ġth in","Ġme et","Ġinterest ed","Ġl ook","d er","g ge","gge st","Ġsu ggest","Ġcent er","ra l","p olice","q u","wh ere","Ġreserve d","Ġc on","Ġbe en","Ġde stination","Ġc ar","Ġth ose","Ġcal l","Ġpic k","Ġp ay","Ġco m","Ġmat ch","Ġthin k","Ġco de","f e","v ice","Ġm ind","Ġp ost","Ġser vice","h i","Ġin clu","Ġh o","Ġse ve","Ġseve ral","Ġf ound","al l","Ġch e","cou ld","Ġattraction s","Ġc u","h ave","Ġpro v","Ġs ee","Ġc are","on der","Ġre ally","Ġs ure","Ġloc ation","Ġpay able","Ġneed s","Ġprov ide","Ġto o","Ġmat ter","Ġof fer","Ġtravel ing","Ġevery thing","at e","Ġcu is","Ġby e","Ġu n","Ġl on","Ġcuis ine","Ġe at","onder ful","n ing","Ġwh en","Ġinclu de","ve r","a in","pp y","in fo","q uest","Ġtown info","Ġarri val","Ġbe t","Ġce rtain","n ot","Ġi d","Ġc ost","la d","Ġthe n","Ġche ck","p lease","fe ct","Ġbo th","Ġf it","Ġent er","Ġf e","Ġp o","Ġs et","Ġlon g","Ġch oo","sta nce","Ġin fo","g ain","Ġassi stance","Ġf ur","Ġha ppy","Ġfur ther","t s","at ely","Ġa ct","Ġa gain","Ġmuseum s","s on","Ġw onderful","ell o","Ġstay ing","Ġd id","oo l","t un","Ġpar k","h ello","ro w","for tun","fortun ately","st ead","Ġn ar","Ġin stead","Ġnar row","ir st","Ġdo wn","Ġth ing","Ġchoo se","i re","Ġ out","Ġact ually","Ġcon f","Ġper son","ee n","Ġli st","Ġenter tain","Ġd ine","Ġho pe","h a","Ġentertain ment","w i","ou gh","Ġf irst","w een","t ed","w ould","ar ch","Ġch o","Ġdepart s","i ther","Ġbet ween","Ġe x","Ġse arch","Ġon ly","Ġcho ice","un fortunately","Ġ right","Ġa c","Ġcontact ing","i e","Ġa d","Ġo k","Ġg lad","Ġc l","Ġre quest","b e","Ġ qu","Ġf a","Ġn ame","e m","Ġh ouse","Ġc our","m i","Ġcour se","Ġse at","Ġ rea","Ġcollege s","Ġp l","Ġm i","p or","Ġar ch","al right","Ġne ar","Ġper fect","Ġh ospital","Ġs y","a st","st em","Ġsy stem","m m","Ġe ar","a s","act ually","a b","Ġk ind","Ġe ither","the ir","Ġit s","ble m","Ġpro blem","Ġp lea","Ġconf ir","Ġcl ose","Ġh ead","Ġreservation s","clu b","Ġcom ple","Ġg ot","Ġser ving","Ġpl an","Ġnight club","qu ire","ite ct","Ġthe at","Ġpo ssi","p s","Ġh ere","Ġarch itect","Ġqu ite","Ġw ere","i an","Ġre quire","f ore","o f","ce rtain","Ġp ool","certain ly","s orry","ion s","Ġfe w","Ġsh all","Ġday s","Ġfind ing","Ġ y","Ġl ot","Ġbo at","do es","mi ss","an d","Ġarchitect ure","miss ion","the y","Ġs wi","pe n","Ġplea sure","Ġpreference s","Ġcall ing","Ġpart y","g ood","Ġad mission","Ġear l","p er","Ġthe se","i ll","u s","Ġth ough","Ġpossi ble","Ġa p","le nt","Ġh our","ha ps","Ġbe fore","Ġma de","m ay","o g","ar d","Ġmatch ing","el e","is h","s ounds","so l","t on","Ġper haps","Ġs ound","Ġplan ning","Ġtheat re","Ġp olice","i z","Ġmeet s","sol ut","Ġrea ch","Ġrequire ment","solut ely","e ver","Ġok ay","Ġswi mm","e x","Ġ ve","Ġswimm ing","Ġbe st","Ġchoice s","Ġres ul","u ll","w ell","Ġ ro","o h","Ġch an","Ġl at","Ġb a","i l","le t","Ġrecommend ation","vel y","Ġfa v","Ġresul ts","ab solutely","c el","Ġint o","m y","Ġoffer s","Ġfav or","Ġa pp","m a","Ġh e","no pe","ol og","Ġcomple ted","Ġd in","Ġsome where","Ġs por","Ġlist ed","i le","Ġc a","s u","r ou","Ġcan not","Ġlo ve","c i","Ġservice s","Ġfavor ite","Ġhelp ful","Ġlat er","ele phone","Ġba ck","Ġ yes","cel lent","Ġspor ts","Ġth an","Ġd es","Ġmi ght","good bye","b ook","Ġm ost","Ġse nd","Ġt elephone","a d","t i","Ġneed ing","Ġlo vely","Ġst ill","Ġra ted","o d","wh ich","Ġsh ow","ea h","Ġ quest","Ġc ine","Ġsh or","Ġy et","Ġap olog","Ġmay be","' ve","Ġ ri","Ġwh ile","ut e","en joy","el f","Ġdepart ment","Ġun su","Ġa h","Ġlo d","Ġhead ing","per fect","Ġf un","Ġcom ing","Ġunsu ccessful","i es","t e","Ġah ead","y eah","Ġmatch es","re d","Ġm o","Ġun able","Ġclose st","ul ti","ur ch","Ġpost al","Ġseat s","Ġg rou","Ġm ulti","Ġpick ed","d y","re ci","Ġre st","Ġgrou p","s h","Ġmulti ple","Ġa dd","Ġcom m","g lad","Ġapp reci","de part","Ġquest ions","Ġchan ge","t t","f in","Ġconfir m","ce r","ull y","Ġar ound","iz e","b ly","Ġwant ing","Ġappreci ate","Ġri de","Ġtry ing","Ġac com","g ing","Ġcomm ute","g in","it ely","Ġfit s","fin itely","Ġh i","s elf","Ġcon cer","o me","Ġloc al","Ġprefer red","a nt","Ġsu it","Ġsu ccess","Ġno thing","Ġapolog ize","f ully","it ion","ie st","Ġbe gin","Ġlook s","Ġc or","Ġo ver","re et","i er","m od","Ġlist ing","Ġro ad","Ġe nd","Ġearl iest","depart ment","Ġaccom mod","ex cellent","Ġcost s","Ġshor ter","Ġcine ma","d on","l ing","w es","Ġroom s","wes ome","Ġe ve","n ue","Ġsuggest ions","Ġo pen","wh en","Ġearl ier","p ing","Ġs ch","Ġinterest ing","Ġst reet","Ġpark s","Ġnightclub s","Ġve nue","ition al","Ġch urch","Ġmy self","Ġsu ch","Ġne w","Ġsuccess fully","Ġthing s","Ġstar t","Ġbet ter","or n","Ġs ite","Ġde finitely","Ġwork s","Ġsee m","re ct","Ġho ping","Ġ j","Ġ #","Ġli tt","Ġtravel ling","Ġwant ed","Ġdin ing","Ġlitt le","Ġa me","Ġn one","ar y","b il","ura tion","wi ll","Ġac orn","Ġd uration","ai l","Ġvisit ing","Ġconfir mation","Ġme al","Ġtime s","Ġgo es","n e","Ġd ate","Ġinclu d","x t","Ġne xt","Ġcor rect","u nt","in t","fe ra","Ġi m","Ġs a","Ġg ue","Ġadd itional","Ġhi gh","c ri","Ġ king","Ġdes cri","Ġlod ging","ri an","a wesome","ed u","Ġbegin ning","Ġdescri ption","w ay","ri f","nt ion","Ġp a","Ġpre fera","Ġcertain ly","Ġhead ed","Ġsch edu","Ġany time","it ies","Ġnear by","ast ic","are st","Ġpool s","w onderful","Ġne arest","ri st","Ġd et","Ġfe el","Ġcomple te","ra id","Ġco me","Ġaf raid","Ġavaila bil","Ġon es","Ġavailabil ity","i ght","Ġf ut","Ġl ast","Ġb it","Ġpic king","ail s","Ġfut ure","Ġconf us","a m","n er","ri es","Ġeve ning","ou s","Ġm or","Ġgue ss","v i","y le","Ġt y","Ġme ntion","Ġr un","p ular","Ġb el","Ġthat s","Ġhow ever","Ġpo pular","Ġrea dy","Ġprefera bly","Ġreach ed","Ġmo ment","p es","Ġw ay","Ġshow ing","d ge","q ue","Ġhelp ing","Ġguest s","ar ri","p ool","Ġa ust","Ġre f","Ġfe es","Ġdin ner","i m","Ġwi sh","Ġho ld","pen s","Ġ &","Ġcon s","Ġlot s","Ġschedu le","st er","Ġhe ard","Ġdet ails","Ġl ate","Ġmeet ing","Ġs ay","de n","ation s","ro ss","Ġon ce","Ġlisting s","Ġne cess","Ġu se","Ġsome time","Ġspecific ation","Ġex act","Ġty pes","Ġd ire","Ġtake s","rif y","pens ive","d id","Ġi de","er s","por t","unt ing","h mm","Ġf i","Ġl u","ri c","Ġlocat e","Ġtheatre s","w ard","Ġget ting","Ġun fortunately","Ġcons id","n g","Ġb u","Ġget s","Ġlon don","s ian","w el","Ġc la","Ġin ex","Ġother s","Ġhe ar","wel come","a ge","Ġw ee","me d","Ġc ou","ha ppy","Ġseem s","Ġinex pensive","Ġs l","ic k","Ġbel ie","g ot","s ing","Ġ z","Ġb ar","Ġap pe","Ġlod ge","Ġnecess ary","e p","or t","Ġwa it","Ġra ther","Ġpo int","Ġbelie ve","c on","Ġent ries","Ġear ly","c ide","ta nt","por tant","Ġboat ing","m as","Ġd is","it ate","Ġhouse s","Ġim portant","arri ot","Ġh es","Ġc ross","Ġm arriot","rive r","Ġname d","Ġhes itate","Ġp lent","Ġb rea","pe ct","Ġchoo sing","Ġmor ning","Ġsl ot","Ġplent y","c king","Ġg ree","ar ge","Ġrecommendation s","Ġsa id","Ġn or","Ġd one","Ġmu st","Ġha d","Ġminut e","book ed","Ġmention ed","a se","e nd","Ġlea st","Ġbrea k","l ton","Ġt r","Ġt ou","Ġp m","Ġh all","Ġh unting","rea dy","Ġas ian","Ġthin king","u ry","Ġal ready","iz z","Ġaccommod ate","vi lle","Ġd at","Ġwh e","nd er","Ġche cking","Ġ er","Ġs p","Ġg on","Ġof f","Ġe a","Ġsuggest ion","Ġca se","Ġt on","Ġf in","Ġin j","for d","Ġinclud ing","l ish","s b","Ġg all","Ġre g","Ġha p","Ġconfir med","Ġwhe ther","Ġea ch","' re","h ere","er y","Ġr out","Ġconfus ion","b o","f rom","f ast","u se","ra y","Ġth r","at ed","Ġb ed","Ġs ort","Ġch arge","Ġlet s","on g","Ġp ric","ere d","Ġso on","Ġv a","Ġex cellent","Ġaccommod ations","Ġlu ck","Ġbreak fast","l i","ce p","th is","Ġc ur","ro p","Ġex pect","Ġplea s","Ġgon ville","Ġpric ing","' d","nt astic","th all","Ġfor got","Ġwith in","ure d","ie nce","Ġfa ntastic","Ġconcer t","Ġconcer thall","Ġame n","Ġrout e","h e","Ġf ull","Ġs c","Ġo h","Ġnumber s","Ġar t","en e","Ġche ster","Ġrequest ed","Ġmi lton","Ġconsid er","Ġthr ough","a h","Ġ ke","in ce","Ġw onder","Ġp izz","Ġc at","Ġdo nt","Ġent ry","Ġchurch es","Ġlate st","Ġhap pen","c a","ri end","Ġfor ward","ow ing","no thing","Ġsome place","Ġboat s","Ġwee k","' t","Ġinj ured","Ġwhat ever","so me","ther n","Ġac cide","Ġtheat er","Ġinclud ed","Ġhigh ly","Ġtou rist","Ġaccide nt","h er","t o","Ġc ab","any thing","may be","Ġro b","Ġking s","Ġamen ities","he y","Ġke ep","w s","Ġf riend","or y","Ġb us","ur ing","be fore","Ġreg ard","Ġwonder ing","g ed","ri dge","Ġs ain","Ġd river","Ġex p","way s","e ither","s ide","Ġc b","the n","Ġshor t","ng th","Ġcla rify","Ġappe ar","Ġton ight","i st","i al","Ġa ir","ra me","Ġs ele","Ġli ver","ss age","Ġle ngth","ut i","Ġu nder","Ġun a","ha m","Ġchester ton","f ant","l ooking","Ġ ran","re s","Ġa yle","Ġto ld","de ed","ction s","no on","Ġafter noon","Ġst yle","vaila ble","Ġspecific ally","Ġcom p","Ġfit ting","Ġrequest s","Ġaust rian","Ġexact ly","Ġgall ery","Ġpleas ant","Ġliver pool","fant astic","b ed","c or","nt il","Ġf are","ri can","Ġd uring","it s","Ġal ways","Ġu ntil","Ġspecif y","Ġex c","Ġdes k","uti ful","Ġuna vailable","u al","v ie","Ġbe a","Ġbe ing","ta ble","that s","un ch","Ġame rican","sb ray","bo th","Ġpizz a","Ġair port","d one","r or","Ġ que","Ġf ar","Ġd ou","Ġar range","Ġcine mas","tt y","Ġva ri","Ġrob bed","Ġbea utiful","a ma","p ri","nt ly","me m","Ġo pe","es ian","Ġpre tty","Ġen ough","Ġlet ting","Ġac cep","con d","Ġer ror","b ury","b lish","t ry","Ġf en","sta blish","er m","Ġc lu","Ġre mem","Ġme an","Ġhel d","ic an","Ġe stablish","Ġor der","Ġse cond","Ġoffer ing","ver s","og y","Ġpa ssage","Ġclu b","Ġg ene","Ġma king","Ġsee ing","Ġmarriot t","Ġexc it","f irst","p o","r ook","Ġhelp ed","Ġall owing","un g","Ġpick y","Ġpossi bly","Ġca m","Ġgree n","Ġregard ing","Ġsain t","Ġdou ble","Ġestablish ment","Ġgene ral","i g","k ed","l ogy","m ost","s ue","Ġp urch","al e","an der","Ġme t","Ġsu pp","der n","ie nt","Ġswimming pool","Ġapolog ies","Ġj ama","Ġdire ct","Ġayle sbray","f ind","Ġ jo","Ġh in","Ġh ung","er o","Ġb ish","Ġtrain id","Ġcou nt","pri se","Ġjama ican","m ore","s w","Ġa le","Ġs ince","Ġin deed","Ġwith out","Ġe ver","Ġmo dern","Ġrun ning","Ġz ero","Ġcur re","Ġbish o","i p","Ġal right","Ġch rist","Ġconcer n","Ġnew s","Ġremem ber","Ġexcit ed","Ġpurch ase","d s","i v","l o","r s","s c","al so","ge t","ic al","nd ing","Ġrecommend ed","our ne","Ġsa fe","Ġbu dge","Ġale x",", [","] ,[","ou ght","Ġb as","Ġd an","ge ta","Ġre vie","Ġarchitect ura","Ġve geta","Ġnor thern","Ġsp ot","Ġbudge t","Ġvegeta rian","f f","u b","z ing","Ġt ran","al ay","Ġc ate","Ġme ant","Ġany more","it es","Ġta king","Ġtable s","Ġwhich ever","Ġinterest s","Ġfa mi","Ġdire ctions","Ġexpect ing","Ġappear s","Ġaccep table","Ġalex ander","Ġcate g","c y","Ġa nt","Ġth ought","st ed","Ġm alay","Ġbe ca","Ġwill ing","Ġe ast","Ġha ving","ine ss","Ġsearch ing","Ġca nt","Ġhi st","Ġcou ple","Ġhunting don","Ġarchitectura l","Ġbeca use","Ġa ccess","Ġan sw","er ry","Ġis sue","Ġs w","Ġs ou","se s","Ġre cor","one y","et y","Ġbus iness","Ġdan ish","Ġmalay sian","a zing","Ġf o","Ġh ut","Ġh ol","le ts","Ġm oney","Ġam azing","Ġch erry","Ġact iv","Ġve rify","Ġran ging","Ġvari ety","Ġrevie ws","Ġtran s","i day","Ġa wesome","ou nt","in a","sta r","ri b","Ġd it","Ġm ood","Ġam ount","id ed","Ġsu r","Ġch ose","Ġma in","Ġse ction","Ġex per","Ġadd res","Ġdat es","some thing","Ġhin ton","Ġcurre ntly","Ġhol iday","s a","Ġf rame","Ġp ut","Ġg ar","de finitely","Ġwif e","Ġcl os","be an","Ġswi ss","Ġdes ire","Ġlodging s","Ġide a","Ġbisho ps","Ġrecor ds","b an","b rook","g o","n s","ra t","Ġi ri","Ġf act","sta ke","Ġb ist","Ġs ir","Ġg erm","eo logy","Ġspec ial","Ġcu ban","Ġcheck ed","Ġmi stake","Ġcam b","Ġcateg ory","rib bean","Ġiri sh","Ġgerm an","c ool","u p","Ġ resta","Ġf an","Ġp ound","Ġp as","Ġb ridge","an do","Ġc ool","Ġg ast","Ġas ked","Ġk os","Ġarch a","ab ly","ab ase","Ġeve n","Ġsch ool","Ġj ourne","Ġdis p","Ġdat abase","Ġcat ch","Ġtrans port","Ġdit ton","Ġgar den","Ġbist ro","Ġkos her","Ġjourne y","i ed","m ing","Ġt al","Ġp ol","Ġin qu","Ġm an","Ġre l","Ġat te","Ġper sian","Ġmi ss","Ġca ribbean","Ġrest ate","ne ed","Ġconfus ed","Ġhunting ton","Ġsele ct","Ġque ry","Ġope ning","Ġdisp ute","s ic","Ġin n","ed ish","Ġm id","Ġwh y","Ġal one","Ġr u","Ġassist ing","Ġtake n","Ġtheat ers","Ġgree k","Ġfin ish","Ġsupp ose","Ġcount y","Ġsw edish","Ġaddres ses","p ick","w as","el p","ve n","Ġb ir","le xi","Ġg ra","Ġne ver","ch es","Ġgive n","ol k","Ġstation s","ral ian","Ġchan ce","Ġaust ralian","Ġshort en","Ġchrist mas","Ġarcha eology","lexi ble","t y","in es","Ġf lexible","Ġb elf","Ġhave n","Ġal ter","Ġal ong","ssi an","Ġperson ally","Ġchan ged","Ġdesire d","Ġtransport ation","Ġru ssian","a it","b son","e nt","t c","t ish","ra nt","Ġin don","Ġar bury","Ġbooking s","com ing","Ġwe nt","Ġwork ed","net ian","Ġup sc","Ġho bson","Ġeat ing","Ġad ress","Ġad den","Ġqu al","Ġqu ick","us ion","Ġve netian","Ġappe al","Ġsc ot","Ġindon esian","Ġupsc ale","h elp","i vely","n n","w ait","er n","Ġb unch","Ġc reat","Ġs ri","se ng","Ġo b","one se","Ġyour self","Ġsta n","Ġe tc","Ġde pe","Ġab solutely","Ġup coming","Ġun us","Ġnarrow s","Ġeast ern","Ġcant onese","Ġsur prise","Ġexper ience","Ġpas seng","Ġscot tish","Ġunus ual","h o","k house","n ah","p ha","w or","al an","Ġh and","Ġl ank","Ġb ra","Ġs ing","ar ket","ke nd","Ġtravel s","Ġaf ford","Ġst ea","now n","Ġmi ll","Ġsuit able","rif ic","Ġcome s","Ġconsid ered","Ġunder sta","Ġansw ered","Ġclos er","Ġpol ish","Ġlank an","a rian","b ably","c can","o p","o ver","o ccan","r ing","t ell","v ol","Ġt us","Ġt rou","ra unt","Ġf usion","ve red","Ġb ro","Ġb ill","Ġs at","Ġs ites","Ġand re","Ġo ld","gh an","Ġco vers","Ġde c","ive rs","Ġparticular ly","Ġspe nd","Ġrea son","Ġmor occan","vi ous","Ġwee kend","Ġbar be","Ġhung arian","Ġant h","Ġgarden s","Ġalter n","Ġundersta nd","Ġtus can","Ġtrou ble","d ing","d itional","u a","Ġt our","Ġf all","me r","tra vel","Ġl an","er ies","an ce","Ġc ra","Ġd ue","Ġne wn","Ġo wn","lea ving","Ġtra ditional","any time","en s","Ġperson al","Ġba d","Ġcor sic","Ġbu y","Ġfin ches","Ġcat alan","Ġnewn ham","Ġcorsic a","ra ll","ra la","at her","Ġl unch","Ġb ot","Ġin vol","ood le","co ntact","it ch","Ġal most","Ġal pha","Ġco vered","ir ing","Ġwor th","Ġdeparture s","Ġcon ven","Ġname s","olog y","Ġpa id","Ġcross over","rop ology","Ġconcern ed","Ġfo ll","Ġfan cy","Ġstea khouse","Ġanth ropology","ua rant","a p","e ct","g ive","j ect","k nown","n one","n ever","t le","u h","Ġ river","Ġt e","Ġa ss","at ure","Ġw r","Ġn oodle","Ġh al","Ġs i","Ġg ave","Ġm is","Ġwh o","ow n","ly n","Ġde cide","wh y","Ġwel sh","Ġsome one","what ever","Ġch ea","Ġwe st","Ġwor king","Ġen g","Ġpro bably","Ġact ual","Ġhour ly","Ġexp ress","Ġdirect ly","Ġbelf ry","Ġob ject","Ġlan e","d i","e ar","t r","t en","t een","v ian","Ġi ll","Ġs can","Ġd el","Ġg ather","Ġwould n","Ġre al","Ġdo ing","dd le","Ġprice y","Ġle ss","Ġstar ing","Ġal ot","ter s","Ġde al","Ġaf ghan","Ġpre vious","Ġprovide s","Ġpo lyn","Ġpl ough","Ġro sa","ma ke","Ġquest ion","Ġer it","Ġcur ry","Ġfriend s","Ġbas ed","ming ham","Ġbot an","Ġwest side","Ġscan d","Ġpolyn esian","g ian","i ous","l ook","o int","r on","Ġf ro","Ġp at","Ġh ur","Ġl a","Ġc le","train s","ar n","Ġcan cel","Ġe m","pe st","Ġpostcode s","Ġinfor m","Ġch i","Ġst ick","Ġspecific s","Ġprov ided","Ġun known","be y","per haps","Ġlat in","Ġapp ro","Ġri ding","Ġaccommod ation","Ġschedu led","Ġide al","Ġfi g","ward s","li ar","Ġthrough out","Ġfami ly","Ġfami liar","ina vian","Ġinqu iring","Ġandre ws","Ġcra ving","Ġchea pest","Ġeng lish","Ġscand inavian","c u","c il","m arket","p on","s ame","s ur","w ow","re an","Ġfor m","le ss","Ġany way","xi m","Ġco nt","Ġres pon","Ġab bey","Ġsu per","Ġas king","Ġwor ld","Ġnarrow ed","Ġfa ir","Ġfa cil","mi l","mi ght","Ġmi ddle","as ian","Ġy o","Ġapp oint","sh ould","Ġide as","Ġhall s","Ġcomp any","Ġhist ory","Ġactiv ity","star ting","brook es","Ġbir mingham","Ġqual ity","Ġcreat ive","Ġstan sted","Ġafford able","Ġwr ong","Ġhal al","Ġgather ing","Ġerit rean","Ġappoint ment","a g","a den","k s","r u","Ġt ando","Ġa way","at ing","Ġw al","Ġw orry","Ġf olk","Ġp ri","Ġto ok","or s","Ġh ot","Ġl ow","Ġb ring","Ġwi de","Ġm ut","ge s","Ġsta nd","Ġle is","Ġstar ts","id ing","Ġpart s","Ġst e","Ġknow n","Ġspecif ied","Ġcuis ines","Ġun it","Ġex am","Ġkind s","Ġpossi bil","Ġy ear","su ccess","Ġrest urant","depart ing","Ġnew market","Ġame ric","Ġcla ss","li ple","Ġexp l","Ġjo h","Ġsou thern","Ġgast rop","Ġbro aden","rall y","Ġsi mil","Ġbotan ic","Ġappro xim","Ġleis ure","Ġexam ple","Ġpossibil ities","Ġsimil ar","c ular","f ree","i ving","i que","n a","s house","t re","Ġth ir","nt own","Ġp et","Ġp ub","ing s","Ġb ig","Ġd rop","Ġg iving","Ġne ither","Ġma g","Ġwor ries","Ġv i","Ġfe ature","wi se","Ġperfect ly","Ġplan s","Ġca fe","Ġrest uarant","Ġgue shouse","Ġbel gian","arri val","Ġaust rala","Ġz ip","Ġshort ly","Ġope ra","Ġactiv ities","Ġpasseng ers","Ġconven ient","Ġcle ar","sur prise","Ġmut liple","Ġameric as","Ġaustrala sian","b or","e st","m ind","p ress","r oom","u me","w ere","Ġ rom","Ġt er","at ively","Ġf ully","Ġs le","Ġs ight","Ġfor get","Ġd ro","Ġre fer","Ġta x","is f","Ġreser ving","Ġfood s","Ġinformation booking","Ġoption al","Ġpro per","Ġtri ed","Ġcon vers","Ġun ivers","Ġex tra","Ġpl ay","Ġide ally","cep t","Ġsc ience","po ssi","Ġestablishment s","Ġhung ry","Ġbas que","ub s","go ing","Ġfinish ed","ent rance","Ġsat isf","Ġbarbe que","Ġhur t","Ġtando or","Ġgastrop ubs","Ġvi ct","a gain","b and","f ter","i od","o in","p t","v o","w ntown","Ġp an","Ġp ast","th ough","Ġh us","Ġl y","an ian","ar ry","Ġm od","fere d","Ġdo wntown","Ġe as","Ġal though","Ġsu ff","Ġdoes nt","Ġper iod","Ġv ary","Ġtrip s","Ġcon ne","Ġex cept","Ġad just","Ġkind ly","Ġaccom od","Ġpa rame","Ġdis cu","Ġtou ch","Ġsele ction","po ke","Ġtal king","Ġopening s","ho pe","Ġsing ap","Ġinvol ve","Ġexpl ore","Ġapproxim ately","Ġmag d","Ġrom anian","Ġdro pp","Ġconvers ation","Ġpan asian","Ġhus band","Ġparame ters","Ġdiscu ss","Ġsingap ore","a k","a ce","a pp","n ed","n ight","o my","p m","u nder","Ġ es","Ġa ve","at ive","Ġw ar","Ġw and","Ġf ails","Ġp ull","al ene","ve nt","Ġl and","ri ed","Ġs it","Ġin d","Ġd rive","Ġg h","Ġm ary","um mer","Ġat t","one st","nd s","wh ile","Ġab o","Ġk id","Ġst ated","Ġwe ster","Ġra te","Ġother wise","Ġun sure","ex t","Ġresul t","Ġsuit s","Ġeve nt","Ġbit es","Ġschedule s","Ġgall eries","Ġconcerthall s","Ġexp and","Ġque en","Ġcamb ri","Ġrel atively","Ġmiss poke","Ġadden brookes","Ġdepe nding","Ġdec ided","Ġfoll owing","Ġte ch","Ġem ail","Ġfig ure","Ġrespon se","Ġfeature s","possi bly","Ġly nn","Ġsingapore an","Ġwester n","c c","c ation","h ic","l ic","m s","m it","p ost","t ely","u d","z il","Ġt ree","re ally","in ity","ra ry","Ġw ed","Ġp lu","ce nt","Ġh u","Ġh ed","Ġb l","ri ving","Ġs m","le ct","le bury","le cular","Ġm ine","ran k","Ġre c","ic ious","Ġe xi","Ġar ran","ter rific","Ġsh op","Ġst u","Ġgive s","Ġmin s","Ġmat h","Ġwor ried","ment s","do or","Ġenjoy ed","Ġpro cess","Ġcent rally","Ġsee king","Ġhope fully","Ġcho p","Ġac ross","Ġmi x","Ġcomple tely","Ġgot ten","Ġy eah","Ġve hic","Ġfavor ites","Ġca use","Ġadd ition","Ġpa ra","Ġprefera ble","Ġlast s","hmm m","Ġlu x","Ġdis app","Ġsp ace","bo at","Ġcharge s","res er","Ġcount ry","Ġgast ron","Ġrel ated","wor th","Ġbra zil","Ġdel icious","Ġpub lic","Ġunivers ity","Ġmagd alene","Ġdropp ed","Ġexi st","Ġvehic le","Ġgastron omy","Ġbrazil ian","a c","c lect","e al","f i","o pp","v an","Ġ $","Ġf if","Ġp ul","Ġp unting","Ġto p","Ġn ando","Ġc ut","ri ous","Ġd riving","Ġli e","Ġli ght","Ġo cc","Ġre p","Ġre t","Ġbe nn","Ġdo z","Ġhelp s","Ġwh ip","it o","Ġelse where","Ġe clect","Ġwhat s","ul t","ee p","Ġlocat ing","Ġno on","how dy","Ġcent ral","qu ito","Ġpick up","hi b","Ġche ers","Ġwhen ever","Ġex hib","Ġy ard","Ġswi m","which ever","Ġmo lecular","Ġfi x","Ġz eal","Ġwait ing","Ġvari ous","Ġclub s","rook es","Ġcam p","Ġeast side","Ġsou l","Ġresta raunt","Ġinqu i","Ġatte nding","Ġgra f","Ġaltern ative","Ġmis under","Ġste van","Ġgh and","Ġplu s","Ġdisapp oin","Ġpul led","Ġeclect ic","Ġzeal and","a pes","a ged","c ing","c all","g reet","h m","i ld","i gh","k worth","n ice","o m","p in","r ot","u ter","y s","z ion","Ġ ot","ra te","Ġw at","Ġf rank","el d","ce s","th ose","Ġh ard","an other","Ġc ook","Ġs ize","Ġd arry","ar s","Ġre pe","Ġre ta","Ġre sol","Ġany th","ime nt","Ġsta zion","la st","Ġwh ite","pe ci","Ġar ts","Ġde ar","Ġres pect","come nd","if y","os ed","Ġv ill","Ġlook out","hi ll","Ġset tle","Ġdown ing","Ġad vent","mi lton","Ġrest raunt","Ġim press","Ġconfus ing","am ore","con g","Ġcomp uter","cor rect","Ġarrange ments","ig n","Ġsupp osed","Ġswimmingpool s","Ġjo in","Ġspot s","Ġtal k","Ġman aged","Ġatte ntion","Ġsing le","never mind","Ġpat ience","Ġfair ly","Ġfacil ities","Ġopera tion","Ġsle ep","Ġeas y","Ġconne ct","Ġdiscuss ed","Ġes peci","Ġwand lebury","Ġhed ges","Ġcause way","reser vation","Ġfif teen","Ġwhip ple","Ġstevan age","Ġghand i","greet ings","Ġcook house","Ġstazion e","Ġvill age","Ġespeci ally","e ck","f t","f ish","m or","m an","p ot","s ince","y ea","Ġt ur","Ġt ext","in deed","ra int","Ġi an","Ġw o","Ġp os","or ia","Ġh ong","Ġc ust","Ġs ave","Ġs ill","le n","Ġin s","Ġo dd","Ġo we","Ġo pin","Ġre se","Ġcan apes","es us","Ġme d","Ġany one","Ġle ns","Ġta st","the nd","ch eck","Ġarrive d","if ic","Ġserve d","Ġse c","Ġst ort","Ġmake s","Ġint end","ia m","Ġevery one","Ġprov iding","Ġun less","Ġeat ery","Ġeat eries","Ġrea d","Ġrequire d","Ġreach able","Ġmost ly","Ġmo ve","Ġmo vie","Ġappreci ated","ome r","Ġj esus","Ġking fish","Ġlast ing","sb rookes","Ġcomp l","Ġhist on","Ġhist or","Ġansw er","Ġchose n","Ġquick ly","Ġappeal ing","Ġdepe nds","Ġpasseng er","Ġreason able","Ġaltern ate","Ġass ume","Ġchi quito","Ġpri or","Ġjoh n","bor ough","Ġvict oria","Ġwar kworth","Ġsit u","Ġabo ve","ud amore","Ġpara de","fi eld","opp ing","Ġ$ [","Ġinqui ry","Ġfrank ie","Ġrepe at","Ġrespect ively","Ġcust omer","Ġopin ion","Ġkingfish er","b ul","b ray","b ridge","c ue","c ity","g g","i se","i en","m ely","m ous","p b","p re","r di","Ġ x","Ġ row","Ġt re","Ġt reat","re g","re t","re commend","Ġa vai","st ood","Ġw ou","Ġw ine","Ġp unt","Ġto wards","ve s","Ġh ate","Ġh ill","Ġl arge","an g","ri te","Ġd on","Ġg u","rea d","Ġli king","um my","Ġre nt","Ġre ce","ber y","Ġof fered","Ġme r","Ġle ar","ro sa","ut ing","ul ations","Ġor ient","Ġguest room","Ġsh e","Ġsh eep","Ġch ar","Ġst rat","Ġr ing","we et","Ġvisit ors","ck s","der s","Ġcon st","Ġdestination s","Ġcu rious","Ġmatter s","Ġex tre","Ġad c","Ġfa x","Ġfa mous","mm as","Ġcomple x","Ġy ummy","us day","iz ed","ad den","Ġfun k","Ġmo de","Ġj ello","Ġhigh er","ers borough","Ġlu ca","Ġbu ild","Ġtr inity","Ġinj ury","Ġreg ion","li ke","some where","Ġcab ridge","Ġsain ts","Ġaccep t","Ġjo b","Ġbisho p","Ġissue s","rat ulations","Ġatte nd","Ġgra b","Ġappeal s","wor ld","Ġbarbe cue","Ġfall s","Ġfoll ow","Ġriver boat","Ġprevious ly","Ġstand sted","Ġpet ersborough","Ġtandoor i","Ġsuff ice","Ġstu ff","Ġlux ury","Ġret ur","Ġbenn y","Ġcamp us","Ġgraf ton","Ġdisappoin ting","Ġreta il","cong ratulations","Ġsill y","Ġrese arch","Ġcompl iment","rdi ge","Ġorient al","Ġstrat ford","Ġextre mely","a fter","b al","b et","c b","g w","j ah","s hi","s pot","s weet","t elephone","y ep","Ġa u","Ġa st","in ed","ra jah","Ġw an","Ġf ir","Ġto ge","Ġto mor","th side","oo ps","Ġh er","Ġl ine","er ia","Ġb rou","Ġb ummer","Ġc ame","Ġs k","le s","Ġin quire","Ġd ai","Ġd ish","Ġg l","Ġg ir","Ġg lo","Ġne at","Ġli mit","um ping","Ġre ge","Ġle arn","Ġle ft","ic ient","Ġe st","Ġall ow","Ġso onest","Ġco ld","Ġco ver","Ġleave at","ch rist","Ġstay ed","Ġarrive by","Ġwant s","Ġsh opping","Ġcontact ed","mend ous","Ġma ha","Ġst ate","Ġdif f","Ġdif ference","Ġtell ing","Ġspe ak","Ġun li","Ġun ique","Ġlong er","Ġentertain ing","wi th","Ġspor t","Ġri ders","sh all","Ġcomm uting","fera bly","Ġhigh est","Ġrun s","im p","Ġsay ing","Ġbar n","izz i","Ġfin al","Ġpleas ed","Ġrob bery","Ġsele ctions","Ġhin ch","Ġcurre nt","Ġexper ien","Ġspecial iz","Ġmistake n","Ġcamb rdige","Ġreason ably","Ġinvol ving","itch en","Ġfro nt","Ġcont in","Ġfacil ity","Ġwal king","Ġhot spot","Ġlow er","Ġjoh ns","Ġthir teen","Ġter ri","Ġter rific","Ġsatisf ied","Ġinvolve d","Ġatt em","Ġdoz ens","Ġadvent ure","Ġmed ical","Ġlens field","ific ations","Ġsec ure","Ġstort ford","pre ferably","Ġtre mendous","Ġpunt er","Ġmer cer","Ġcompliment ary","Ġtoge ther","Ġtomor row","Ġdai ly","Ġglo bal","Ġmaha rajah","Ġexperien cing","b our","c ine","c ina","d ated","d arn","f olk","l ine","n u","n y","n cy","n ivers","p ar","r t","Ġt el","Ġt ea","Ġt erm","Ġa ut","Ġa vo","in brook","ra ct","Ġth ur","Ġthe rea","Ġf ul","Ġp ain","ce ed","sta nding","ue s","oo t","ing ling","Ġan nivers","Ġb ank","an ge","Ġc ele","Ġc ities","Ġc ru","ri ate","Ġs imp","le y","Ġd i","Ġd u","Ġd ial","Ġg e","Ġg pb","Ġm ar","Ġm ich","Ġm all","Ġm arket","um ber","Ġme nu","Ġhel lo","Ġam ong","Ġle ver","nd red","pe e","the se","Ġgood night","Ġal len","no logy","Ġlo l","Ġde cent","ght on","Ġgreat ly","Ġmu sue","Ġha milton","Ġent ire","ket tle","Ġk itchen","ai led","Ġst op","Ġwhere ver","ea ch","Ġv ue","Ġv ia","Ġpro ceed","Ġtot ally","Ġbo ast","Ġbo ard","Ġlook up","fe el","Ġcu cina","Ġnarrow ing","Ġout side","Ġout door","Ġad v","em po","as ion","as ed","Ġreach ing","Ġchan ging","Ġapp rop","ci se","ad ly","ad mission","Ġshow s","Ġpostal code","ne ss","ne ither","Ġdet erm","Ġfeel ing","Ġsometime s","Ġdire ction","Ġtr ust","Ġton s","sb ury","Ġsc udamore","Ġchester on","Ġpizz eria","Ġcomp are","lo cation","Ġman ag","Ġqual ifications","Ġcreat e","ho ld","Ġhand le","Ġwho le","look s","Ġla mmas","Ġchi ld","ique s","Ġgueshouse s","Ġmod ify","Ġcambri de","post al","Ġhu ndred","Ġarran ged","ac orn","Ġcut ting","Ġocc asion","Ġmisunder stood","Ġjoin ing","Ġtur ns","Ġlear ner","Ġconst raint","Ġmode rat","bet ween","Ġbrou ghton","Ġunli sted","Ġhinch inbrook","Ġcontin ue","Ġterri bly","Ġtremendous ly","Ġmercer s","Ġterm s","Ġavo id","Ġtherea fter","Ġannivers ary","Ġcele b","Ġsimp ly","Ġlever ton","empo rary","Ġapprop riate","Ġmanag er","a el","a ri","b s","b ered","c ces","g er","k w","l ot","m in","r ound","s id","s adly","t icket","u ge","u ro","w w","z will","Ġ kettle","Ġt ight","re y","re nce","Ġa go","ou rite","in ts","in ating","ra ting","nt h","nt s","Ġw ow","Ġf l","Ġf ly","Ġf ore","on ce","on ly","Ġp h","Ġp r","Ġp ot","Ġp la","Ġp rom","Ġp ort","Ġto ward","Ġn ic","Ġn ume","oo se","Ġh uh","Ġh onest","Ġh ang","Ġl ines","Ġb ore","Ġb ur","an ely","Ġs or","Ġs ell","Ġin c","Ġin con","Ġd a","Ġd r","se e","Ġg one","Ġne e","Ġne igh","Ġli ve","ll s","um ford","Ġbook s","Ġme ssage","day s","Ġdo jo","Ġon line","Ġwh ose","Ġle ic","Ġthank you","Ġar r","Ġco l","ul ts","Ġplace d","ch urch","ch ange","ch oose","id ge","Ġgo ld","for mation","if ton","Ġk ill","Ġpre cise","Ġse nt","Ġr d","os p","ol ina","do m","lu ck","Ġassist ed","lle d","Ġup dated","Ġlook ed","qu ale","Ġpay ing","Ġmatch ed","Ġho me","Ġfe z","Ġpo ints","Ġentertainment s","Ġex change","Ġac c","Ġad ults","Ġcl ifton","be st","Ġfa sc","ast er","ab as","Ġits elf","Ġy a","og ue","Ġfav ourite","Ġhe art","ile e","rou s","fin ches","Ġchurch ill","Ġj un","Ġj ub","Ġpa sta","Ġpa ss","Ġcla re","Ġcross ing","Ġnor folk","Ġva can","Ġluck y","ca de","Ġregard less","Ġran dom","Ġayle sbury","Ġremem bered","Ġmean s","Ġjo int","Ġconcern s","lo ck","Ġcateg or","Ġant iques","Ġfo c","Ġput ting","Ġclos ed","Ġpas quale","Ġdec iding","Ġreal ized","Ġwal k","Ġsight s","Ġtax is","Ġsatisf y","Ġvict im","Ġsuff icient","Ġaccomod ate","Ġave nue","Ġpull ing","Ġevent s","Ġcambri ge","Ġtech nology","Ġsm all","Ġrec comend","Ġarran ging","Ġmix ed","rot ur","Ġwat er","Ġdarry s","Ġresol ving","Ġins anely","Ġhistor ical","Ġbuild ings","Ġretur n","Ġast rotur","Ġgl itch","Ġcold ham","Ġdiff ic","Ġbarn abas","cine world","par king","Ġdi stance","Ġdial ogue","Ġge or","Ġboast s","Ġadv ance","Ġdeterm ine","cces ful","ticket s","zwill iam","Ġfly ing","Ġnic ely","Ġnume rous","Ġbore d","Ġincon ven","Ġleic aster","Ġfasc inating","Ġjub ilee","a urant","a ck","a way","b all","b ummer","b ack","d a","e g","f ill","f rame","g u","g on","g ue","h ood","h unting","h rs","i dd","i gin","j g","k ely","m u","n ical","o ci","p ed","p ro","p ut","p ard","s ound","t es","t ance","u ght","v a","v is","w ant","x b","x x","y ne","z y","Ġ vers","Ġt at","Ġt ens","Ġa rive","ra ge","Ġth a","st ly","Ġf u","Ġf ill","on d","Ġp or","el led","ce ster","Ġn ed","or ing","th an","th day","Ġh ost","Ġh it","Ġh is","Ġl ost","er bour","Ġb oo","Ġb es","Ġb out","Ġb ell","Ġb last","Ġc ro","Ġc ow","Ġc as","Ġs n","Ġs al","Ġfor th","Ġfor ty","le igh","Ġin correct","Ġd ist","Ġd ig","Ġg oo","Ġg ran","Ġwi se","Ġm umford","Ġlike s","Ġre ma","Ġre port","Ġat ta","Ġit ine","art s","Ġam bul","hone stly","it ive","it ti","yes bray","Ġle vel","Ġtrain ing","ic ally","Ġe con","Ġtown s","Ġar cade","Ġstar ving","Ġstar ted","Ġtime frame","Ġso l","ind er","Ġni rala","Ġres aurant","ta ke","ir kw","Ġu no","Ġor igin","Ġguest h","Ġgo d","king s","Ġmu sic","for m","for table","Ġpart ial","what s","vel ous","Ġch at","Ġk ne","Ġk idd","Ġus ually","ell ow","Ġpre fered","Ġserve r","Ġserve rs","Ġst ri","pit e","Ġce tre","Ġnice r","Ġra tes","Ġv ice","Ġv olk","Ġv ars","Ġenjoy able","Ġspe nding","Ġour s","Ġcar olina","Ġcom fortable","Ġho mer","Ġho gw","Ġfit zwilliam","Ġset ting","Ġperson s","Ġad mit","Ġcl ient","Ġfa st","Ġhospital s","Ġfew er","Ġy ip","Ġy ellow","per son","Ġlat ter","Ġca ught","ci er","Ġback wards","Ġdes pite","Ġsend ing","ad ress","ti es","enjoy ed","te ful","Ġmo nth","gin a","Ġcor n","Ġend ing","Ġj ingling","Ġdet ail","Ġdet ailed","Ġty po","arri ving","Ġwish ed","Ġcons ist","Ġnecess ity","Ġfi lled","Ġcla rific","med i","Ġnor m","Ġnor man","Ġnor thend","Ġnor thside","Ġtr ue","Ġsp read","Ġgon na","Ġoff ice","Ġhap pens","Ġsoon er","Ġva ries","Ġamen ity","Ġconsider ing","Ġtourist s","Ġfriend ly","Ġfare well","Ġspecify ing","Ġexcit ing","ff ee","Ġsw itch","Ġsou thend","Ġcamb ourne","Ġresta ur","Ġtal ked","Ġbir thday","Ġgra teful","ent ial","Ġadden brook","Ġadden sbrookes","Ġhand y","Ġhand ling","Ġandre w","Ġdec is","Ġtour s","Ġsteakhouse s","Ġass oci","Ġpat ient","Ġcont emporary","Ġpri cier","Ġresturant s","Ġthir ty","Ġpet erbour","Ġsle e","Ġrefer nce","Ġproper ty","Ġproper ties","Ġvary ing","Ġaccomod ations","Ġind ust","Ġtech nical","Ġhu ge","Ġbl ue","Ġexist s","Ġlie k","Ġexhib ition","Ġexhib its","Ġmisunder standing","Ġwat ch","Ġresol ve","Ġanyth ign","Ġwhite hill","Ġintend ed","Ġsitu ation","Ġsitu ated","reg ret","Ġgu ys","Ġrent al","Ġrece ive","Ġguestroom s","Ġfunk y","Ġau di","Ġwan na","Ġdish es","Ġgir ton","Ġrege nt","Ġspecializ es","Ġattem pt","Ġaut om","Ġful fill","Ġmich ael","Ġscudamore s","Ġceleb rating","ari ly","uge se","Ġpr ince","Ġpot ential","Ġbur leigh","Ġdr in","Ġneigh bor","Ġcategor ies","Ġfoc us","Ġastrotur f","Ġgeor gina","Ġinconven ience","hunting ton","pard on","Ġvers a","Ġtens ion","Ġbes ide","Ġrema inder","Ġitine rary","Ġambul ance","irkw ood","Ġkne w","Ġkidd ing","Ġvolk sw","Ġvars ity","Ġhomer ton","Ġhogw arts","Ġadmit tance","Ġclarific ation","Ġassoci ated","regret fully","a ww","b q","b t","b ut","b ased","c is","c lock","d l","d u","d arry","d ars","e se","e very","f ound","f ford","f riend","g y","g an","g ree","g ly","h ar","h ely","i os","l er","m o","m and","m osp","n ic","o b","o ld","p a","p l","r se","r ge","s l","s ine","u el","u de","u gh","u ly","v ies","y e","y up","z a","z z","z izzi","Ġ umber","Ġt ill","Ġa while","in h","in ci","ra d","Ġth ier","Ġi ve","st ill","Ġw et","Ġthe med","Ġf r","Ġf ond","Ġp e","Ġp ea","Ġp itch","Ġp umping","el ves","al ble","al ex","al most","sta urant","ve rall","Ġh ook","Ġh mm","Ġl ion","Ġl ab","Ġl bs","Ġb ound","Ġb ite","Ġb inh","Ġis nt","Ġis cb","Ġc ai","ri ll","Ġs on","ot e","Ġin de","Ġin the","Ġin door","ed dars","Ġd ive","se nt","Ġg d","Ġg al","Ġg ray","ay le","ke s","Ġwi ld","Ġli vely","Ġli te","Ġli ked","Ġli kely","Ġo ak","Ġo verall","ge ncy","um m","um ing","ran d","ran ia","Ġre la","Ġre nown","Ġre comend","Ġre check","Ġat mosp","ss er","Ġme di","Ġbe e","Ġdo or","ime ters","Ġsta fford","Ġwh ale","it ude","Ġle g","Ġel eg","ic ation","Ġe mer","Ġe gg","Ġe uro","Ġe ye","Ġe rania","Ġtown e","thank you","Ġar ms","Ġnot e","is ers","Ġlo vel","Ġni gh","Ġde mand","leave s","wh el","Ġpostcode cb","for get","Ġsu n","Ġsu s","Ġser ious","Ġsh oot","if i","if ied","Ġtravel ers","com m","Ġch ines","Ġch eddars","Ġk irkwood","Ġma il","en se","Ġafter wards","Ġhas n","Ġse a","Ġst ro","Ġst un","Ġper imeters","Ġnice st","Ġra ise","Ġen sure","Ġv ol","Ġv ie","we nt","Ġbo ss","Ġtake away","Ġcent ere","Ġsuggest ed","Ġpost c","Ġcu sine","Ġsee n","Ġun fortun","Ġeat s","ain t","Ġdid nt","Ġconf use","Ġad miss","Ġfa ult","Ġfa bul","Ġarch eology","Ġsystem s","Ġkind a","Ġclose t","Ġgot ta","Ġplan ned","itect ure","ex press","Ġro ck","Ġro lls","Ġca p","od a","glad ly","Ġlocal s","Ġover whel","Ġopen ed","Ġj in","Ġ# [","Ġtimes lot","Ġim medi","ight ly","ight ful","Ġref rence","Ġwish es","Ġsay s","Ġnecess arily","Ġlondon s","Ġsl ightly","sing ly","Ġz izzi","con sid","Ġcross ed","Ġslot s","Ġdat a","Ġfin ally","use s","Ġforgot ten","some one","Ġque ens","Ġdou bt","pri singly","Ġoffering s","lo vely","Ġrevie w","ff ic","Ġmeant ime","Ġsur round","Ġmain ly","Ġcamb idge","Ġresta u","Ġresta ru","Ġmiss ed","Ġselect ed","Ġbelf y","Ġob vious","Ġstan stead","Ġstan ford","Ġbra sser","ens ive","Ġte usday","Ġsi ster","Ġdel ay","Ġdel ightful","Ġhur ry","Ġfig uring","Ġsuper vis","ag on","Ġwal let","Ġlow est","Ġstand ard","Ġclass y","Ġopera ting","Ġclear ly","Ġrefer ring","Ġconne ction","Ġabo ard","Ġwed s","Ġrec commend","Ġdoz en","Ġfix ed","Ġimpress ive","reservation s","Ġwo nt","Ġwo ld","Ġpos code","Ġpos itive","Ġtast e","Ġhistor ic","Ġavai alble","Ġchar ged","adden brookes","adden sbrookes","Ġfollow s","Ġresearch ing","Ġsk oda","Ġest ate","ract ed","Ġthur s","Ġcru isers","Ġmar velous","Ġallen ball","Ġmusue m","Ġcompare d","Ġmoderat ly","Ġkettle s","Ġpla za","Ġport ugese","Ġsor ts","Ġsell s","Ġda ugh","church hill","Ġgold en","luck y","Ġjun ction","Ġvacan cy","Ġcoldham s","mu ch","xb ourne","Ġpor tra","Ġcro wn","Ġdist racted","Ġgran de","Ġecon om","Ġsol id","Ġours elves","Ġclient s","Ġyip pee","person ally","Ġrestaur nt","Ġpeterbour ough","Ġslee per","Ġdrin ks","Ġbeside s","Ġvolksw agon","alex ander","Ġcai us","Ġdive rse","Ġlite rally","Ġrela x","Ġrenown ed","Ġatmosp here","Ġmedi um","Ġeleg ant","Ġemer gency","Ġlovel l","Ġmail ing","Ġstun ning","Ġvie w","Ġunfortun ate","Ġfabul ous","Ġimmedi ately","consid er","Ġsurround ing","Ġrestaru ant","Ġdaugh ter","a king","b ing","b ro","b ur","c l","c ated","e on","f b","f ir","f usion","g n","g s","g uest","g bp","g ned","h al","i u","i x","i et","i ly","k ind","l in","m w","m ar","m any","m ain","m use","m bridge","n re","o ps","o ah","p u","p are","p izz","p ical","p ature","s i","s y","s ican","s aint","t ot","u ate","u rious","v y","v ue","v ant","w are","w ifi","w oah","y ing","Ġ val","Ġ value","Ġ ed","Ġt ues","re w","Ġa part","Ġa mend","Ġa gree","in ter","in formation","ra ble","ra ined","Ġth or","st i","st ru","at es","Ġw rite","Ġf er","Ġf ave","Ġf lu","Ġf il","Ġf yne","Ġp al","Ġp ress","Ġp are","Ġp ie","el er","el ber","el ogy","me n","al s","sta rs","Ġn oo","ve d","ve ral","or ford","tra nce","th re","th in","oo h","oo th","Ġh os","Ġh ea","Ġan f","Ġl co","ura te","Ġb i","Ġb on","Ġb um","Ġb other","Ġb less","Ġb bq","an a","Ġc n","Ġc it","ri a","ri al","Ġs qu","Ġs na","Ġs ign","Ġs ense","Ġfor d","ot ic","le st","le vant","Ġin put","Ġin stru","Ġd arn","Ġg rey","ke n","ke y","Ġwi l","ct a","ct uate","rea se","rea ming","Ġne wh","Ġne we","Ġli ed","Ġli fe","Ġhave a","Ġm on","Ġm otel","Ġlike wise","um mm","Ġre qu","Ġre levant","Ġat tra","Ġnum be","Ġof ten","Ġme ss","Ġme ghan","Ġbe g","Ġany place","Ġdo able","Ġtra ffic","Ġthere s","Ġwh il","Ġplease s","ro can","Ġwa st","ic inity","Ġe mm","Ġe trance","Ġtown shi","pe rat","Ġgood ay","Ġgood ness","ree ment","Ġal yesbray","Ġco zy","Ġco ffee","Ġlo ad","Ġde fin","Ġde pature","Ġleave r","ut es","ut ation","ul ty","ch ed","ch ine","wh ale","Ġu ber","Ġu gly","id elber","Ġgo sh","Ġab d","Ġnight l","house s","Ġsu shi","Ġsu ccesful","Ġsome what","Ġsh ot","Ġsh are","if t","Ġtravel ler","Ġas hely","cess ful","Ġent ra","Ġent ree","Ġent ered","Ġcould nt","Ġus er","Ġno pe","Ġma chine","ssi ere","Ġshould n","Ġpre pare","Ġst ra","Ġst ress","Ġst rot","Ġst orford","Ġr ound","Ġassi gned","Ġavaila be","Ġmin or","Ġint ri","Ġper form","un ication","Ġwork ers","Ġdif fer","Ġra ge","Ġra il","Ġv inci","Ġv icinity","ia ble","Ġcri te","Ġtri ck","Ġspe aking","ur s","ur ous","Ġbo xbourne","Ġpic nic","Ġcity room","Ġcar s","Ġcode s","Ġpost co","Ġho ly","Ġpo c","Ġset t","Ġinfo mation","arch itecture","Ġex te","Ġex otic","Ġsearch ed","Ġsearch es","Ġac ron","ie ntly","Ġad vice","Ġad vi","Ġad ios","Ġcl own","Ġrequest ing","Ġqu iet","Ġfa ster","Ġcour t","Ġseat ing","Ġarch way","alright y","club s","Ġplan e","Ġy u","Ġy elp","Ġy op","Ġap reci","Ġro se","Ġro les","il ton","ma g","Ġhe y","Ġhe idelber","su ggest","su per","Ġlove s","ad c","ad y","ti h","Ġshow n","Ġcine man","Ġcine world","Ġdepartment s","Ġunsu ccesful","Ġfun ny","te st","Ġmo on","Ġmo vies","ulti es","Ġrest raint","Ġadd ed","Ġchange s","Ġride s","Ġcor sican","Ġaccommod ating","ne ce","Ġcorrect ed","Ġcorrect ly","int o","rist y","Ġmor rocan","Ġty pical","que en","Ġcons ult","Ġuse ful","Ġbu dd","Ġbu ff","Ġhear ing","Ġz oo","Ġdis count","Ġdis co","Ġdis ag","Ġdis reg","Ġdis like","Ġnor way","Ġwhe eler","Ġsp lu","Ġrout es","Ġsort ford","Ġva cation","Ġsc reaming","Ġart wor","Ġcat har","Ġweek s","some time","to m","Ġbus y","Ġregard s","Ġcb r","Ġclarify ing","ist ic","Ġran ked","Ġerror s","Ġpurch ased","Ġsupp ly","Ġhung ting","ip t","iv ity","lo cated","sc ience","sc udamore","Ġbas ic","Ġsou thside","Ġrecor d","Ġhut s","Ġsur prisingly","Ġclos ely","Ġfact or","Ġresta rant","Ġresta uarant","Ġarcha elogy","Ġschool s","Ġcatch ing","Ġgarden ia","Ġmiss ing","Ġshorten ing","Ġbelf rey","ent ry","Ġbra ssiere","Ġmill ers","Ġlunch eon","Ġconven ience","Ġconven iently","uh m","Ġriver side","Ġass uming","Ġwr ote","Ġhal f","Ġmis comm","Ġbotan ical","Ġcancel led","Ġinform at","Ġform al","Ġbring ing","Ġste ve","Ġclass ic","Ġclass ical","Ġexpl oring","Ġapproxim ate","Ġexample s","Ġthir d","Ġrestuarant s","Ġzip code","Ġsight see","Ġmod el","Ġaccomod ation","Ġinvolve s","night s","Ġave rage","Ġpull s","Ġatt itude","Ġbl ow","Ġbl oom","Ġsm ooth","Ġlux urious","boat s","Ġlie cester","Ġocc ur","Ġrep ly","Ġrep utation","Ġcamp uses","Ġrestaraunt s","Ġgraf itti","Ġdisappoin ted","ys ical","last ly","Ġadvent urous","Ġconnect ivity","Ġins ist","Ġtast y","Ġtast es","Ġrece ipt","Ġcomplex es","Ġbuild ing","Ġretur ned","Ġgir l","Ġlimit ed","Ġrege ncy","Ġallow s","christ s","Ġspecializ ing","Ġattem p","Ġbank ok","Ġdu cking","Ġmusue ms","Ġhundred s","Ġfl ight","Ġph ysical","Ġprom pt","Ġhonest ly","Ġinc rease","Ġcol ville","Ġacc urate","Ġreccomend ation","Ġdiffic ulty","Ġdiffic ulties","gon ville","pro bably","Ġtha ks","Ġhost el","Ġcas ual","Ġorigin al","Ġnorm al","Ġaddenbrook s","Ġdecis ion","Ġindust rial","Ġautom ob","Ġneighbor hood","cis ive","Ġlab elled","Ġinde cisive","Ġgd p","ayle sbray","Ġsun days","Ġvol vo","went y","Ġpostc ard","Ġobvious ly","Ġsupervis or","Ġportra its","Ġcrown e","Ġsleeper z","Ġrelax ing","cl ose","kind ly","muse um","pizz a","inter net","Ġflu ctuate","Ġpare nts","Ġlco ated","Ġbless ed","Ġinstru ctions","Ġnewh am","Ġnewe st","Ġrequ iring","Ġwhil st","Ġtownshi p","Ġstrot ford","Ġcrite ra","Ġexte nd","Ġadvi se","Ġyop u","Ġapreci ate","Ġheidelber g","Ġdisag reement","Ġdisreg ard","Ġartwor ks","Ġsightsee ing","Ġautomob ile","' '","a e","a de","a dd","a rable","b b","b on","b el","b ea","b iz","b od","b ster","b rill","c f","c g","c ame","c ally","c ur","c cer","c am","d w","d in","d ed","d ow","d ir","d les","e f","e j","e ra","e ed","e nce","e ps","e ster","e raunt","f g","f r","f s","f u","f it","f ly","f ab","g r","g ra","g ment","g ged","g round","g rand","h l","h n","h t","h ra","h at","i h","i j","i o","i y","i at","i ses","j a","j k","j or","j ingling","k v","k y","k in","k er","k le","k now","l it","l ol","l and","l ier","m b","m ple","m pa","n i","n ook","n ando","n ext","n umber","o a","o le","o ple","o rate","o len","p d","p f","p g","p h","p r","p x","p lea","p us","p ad","q a","q q","r ounds","s ce","s ive","s as","s ight","t el","t oo","t em","t rian","t ical","t ues","u ment","u cks","u gue","v w","w c","w y","w ou","w ful","w ice","w and","x a","x m","x q","y a","y ot","y ay","y sic","y friend","z e","Ġ *","Ġ `","Ġ ould","Ġ stin","Ġ ut","Ġ ought","Ġt i","Ġt an","Ġt en","Ġt all","Ġt ie","Ġt ex","Ġt il","Ġt ep","Ġt end","Ġt ig","Ġt emporary","Ġt wenty","Ġt wice","re l","re n","re st","re ction","re sh","Ġa ri","Ġa ge","Ġa id","Ġa fer","Ġa com","Ġa vi","Ġa im","Ġa ges","Ġa wful","ou l","ou x","ou th","in ation","in et","ra tion","ra ted","Ġth ous","Ġi g","Ġi k","Ġi ron","Ġi mag","Ġi biz","nt ime","nt ure","st ig","at er","at ter","at form","you re","Ġyou d","Ġw arn","Ġw tih","Ġthe e","Ġthe r","Ġthe me","Ġf re","Ġf el","Ġf ri","Ġf ot","Ġf our","Ġf ish","Ġf ight","Ġf lo","Ġp ed","Ġp ur","Ġp ho","Ġp alan","Ġp rot","Ġp into","el ene","me h","ce ful","al our","al able","al pha","al asian","sta ying","Ġto ay","Ġto yot","Ġn a","Ġn u","Ġn ue","Ġn ature","Ġn inet","or ge","or din","ue y","th r","th ier","oo p","oo vy","Ġh an","Ġh le","Ġh ank","Ġh em","Ġh osp","Ġh tel","val s","Ġan im","Ġl l","Ġl n","Ġl ap","er t","er ing","er tain","Ġb r","Ġb ri","Ġb ay","Ġb ok","Ġb right","Ġb lo","Ġb mw","Ġb rew","Ġb nook","an gh","an cy","an uel","Ġc oo","Ġc ot","Ġc row","Ġc ult","ri e","ri ty","Ġs um","Ġs es","Ġs we","Ġs ia","Ġs ad","Ġs elf","Ġs ick","Ġs ens","Ġs ized","Ġs uey","Ġfor tun","ot ford","le ns","Ġin between","Ġin fusion","cou rage","ed bur","Ġd j","Ġd rea","Ġd ad","Ġd ale","Ġd ilton","se x","se vent","se veral","Ġg la","Ġg ain","Ġg em","Ġg as","Ġg yne","Ġg rill","Ġg ift","Ġg rounds","Ġg orge","ere an","ar nt","ar bury","ct ed","Ġthat n","Ġthat ll","de pe","Ġne uro","Ġli me","Ġli ving","Ġli ves","Ġo s","Ġo pit","Ġo key","ll y","ll age","ll ars","Ġm ow","Ġm other","um ble","Ġre d","Ġre q","Ġre fere","Ġre co","Ġre com","Ġre tain","Ġre book","Ġre booked","Ġre vers","Ġre mind","Ġre du","Ġre thin","Ġat lea","Ġbook m","nce rtain","ss y","Ġme at","Ġme ze","Ġbe nder","Ġbe came","co s","co lle","co logy","Ġany ways","Ġdo ct","Ġdo ck","Ġdo main","Ġdo llars","Ġam d","Ġsta ges","Ġsta ined","la mmas","it a","it ing","it ions","Ġle x","Ġle ich","Ġle iest","Ġle cester","Ġel ab","ow ns","ic ine","ic ated","Ġe th","Ġe ference","Ġe ight","Ġe pensive","Ġe ff","Ġreference s","nd id","nd ant","et it","Ġall s","pe ning","pe ople","Ġar con","Ġar gu","Ġta g","Ġta mpa","Ġta sce","Ġta cos","Ġal i","Ġal ley","Ġal ert","ple ndid","Ġnot es","Ġnot ch","Ġnot ify","is ed","is ness","Ġso m","Ġso ld","Ġso lo","Ġso ccer","ter fly","Ġco ps","Ġco llage","Ġlo bster","Ġni l","stin ed","Ġde st","Ġde stined","Ġpeo pl","Ġpeople s","Ġby art","Ġby ard","ut ton","ut tle","ul ous","Ġloc ally","ir oom","wh oa","Ġu rge","Ġu ncertain","id ance","Ġgreat er","Ġgo on","Ġgo den","Ġab ou","Ġpar ing","Ġmu sl","Ġwel ome","for t","Ġsu ite","Ġsu cessful","act ory","can not","Ġsh ab","Ġsh ops","Ġsh add","Ġsh angh","Ġsh uttle","Ġwelcome d","sure ly","if e","if ferent","Ġtravel er","Ġas bury","Ġbut terfly","Ġcontact s","ice d","ine nt","Ġrecommend ing","Ġlea se","ell ing","Ġno ddle","Ġma m","Ġma int","Ġma hal","Ġma jor","en ance","ive risty","ide ration","Ġse cu","Ġse pa","Ġst ree","Ġst ur","Ġst ating","Ġst eep","Ġst olen","Ġst otford","Ġwe el","Ġwe ather","Ġwe bs","Ġr us","Ġknow ing","our ces","tion s","Ġmuse ms","Ġmin i","Ġmin ton","Ġmin im","Ġmin tues","are ntly","Ġce nre","Ġwhere as","ol ia","Ġper fer","un fortun","un ivers","Ġmy ster","Ġra in","Ġra ve","Ġtell s","do nt","Ġv s","Ġv an","Ġenjoy s","fo d","Ġintere net","ia s","ia nt","Ġcri me","Ġcri sti","Ġcri tical","Ġvisit s","Ġinter sted","Ġtri an","Ġspe cta","led ge","ur day","Ġspecif cally","Ġbo x","Ġbo yfriend","Ġcent r","Ġcent re","Ġcent ra","Ġevery bod","Ġcon d","Ġcon ference","Ġcon ver","Ġcon vo","Ġcon cent","Ġcon formation","Ġcar d","Ġpick s","fe z","Ġpost o","Ġho p","all right","Ġche f","Ġcare ful","Ġsure ly","Ġtoo dles","Ġun rated","Ġun iveristy","Ġlon ely","Ġeat en","Ġarrival s","Ġcost ing","Ġcost ly","Ġenter ta","Ġfe nder","Ġpo ps","Ġex pen","Ġex pens","Ġright y","Ġac quire","Ġad ult","Ġglad ly","Ġcl in","Ġcl so","Ġcl owns","em s","Ġseat ed","Ġrea der","Ġrea staurant","Ġpl atform","Ġmi l","Ġmi les","Ġnear ly","Ġsy tem","Ġear lest","ab il","Ġproblem s","Ġclose s","Ġclose by","Ġhead s","Ġplan ing","ian a","Ġy e","Ġy i","Ġy t","Ġy or","Ġy ello","iz i","Ġve gan","Ġve nture","Ġba se","Ġapp arently","ma de","Ġhe p","Ġdin er","Ġspor ting","Ġspor ty","Ġca ge","Ġca ridge","ci al","ci es","Ġlater s","Ġdes ign","Ġdes perat","ad de","ad os","ti al","Ġquest house","Ġcine me","Ġshor test","Ġri ch","red i","Ġgrou ps","Ġrest ating","Ġrest eraunt","Ġgroup on","sh ite","Ġadd mission","Ġcomm it","fin ally","Ġconfirm ing","Ġaccom id","Ġaccom ad","Ġhi king","Ġconcer ning","Ġconcer ts","ome s","Ġlocal e","Ġsuit es","Ġsuccess f","Ġcor khouse","Ġover look","Ġover night","Ġover sight","Ġchurch hill","Ġj a","Ġj u","Ġj ot","Ġj ig","Ġj ud","Ġj umping","Ġj edbur","ne y","ne ar","Ġcorrect ing","unt e","Ġim possi","Ġsa f","Ġsa w","Ġsa mple","Ġdescri be","edu cation","Ġpa pad","Ġlast ly","Ġmor den","vi ly","Ġty ping","Ġmention ing","Ġref ine","im ated","Ġcons ideration","Ġide nt","Ġbu isness","Ġcla ir","Ġsl ide","Ġbelie ving","Ġbar rel","con ne","con fir","Ġdis conne","Ġtr umping","Ġtr uly","Ġsp elling","Ġea ger","Ġreg ret","Ġhap pening","Ġthr u","Ġthr usday","Ġbed s","li st","li ed","Ġsc ra","Ġsc ale","Ġsc atter","Ġke eps","Ġwonder fully","Ġcat her","Ġhappen ed","Ġtourist y","Ġcab s","ridge shi","Ġdriver s","Ġshort ford","ial s","Ġuna ware","Ġran g","Ġran ged","Ġran ger","Ġstyle s","Ġcomp an","Ġcomp arable","cor ding","Ġexc use","Ġexc urs","Ġpizza ria","Ġvari ed","ama zing","Ġestablish ed","Ġdouble d","Ġale sbray","Ġchrist i","Ġchrist s","Ġdan cing","Ġarchitectura lly","Ġant olia","Ġthought s","Ġansw ers","Ġfo e","rib utes","sa fe","Ġput s","rat ch","Ġfact ors","Ġspecial s","Ġcamb ridgeshi","Ġgast ro","Ġbistro s","Ġman age","Ġrel iable","Ġmid night","Ġru de","Ġnever mind","ent ertain","Ġqual ities","Ġdepe nd","Ġhand s","Ġhand ful","Ġhand led","Ġbra h","Ġstea k","Ġmill ion","Ġbro ther","Ġsat ru","Ġold s","Ġanth ing","Ġaltern atively","Ġcra zy","Ġbot tom","Ġte h","Ġass it","Ġmis read","Ġmis information","ear lier","Ġreal ize","Ġreal istic","Ġdeal s","Ġerit erean","Ġcle an","Ġem ailed","Ġchi ps","Ġideal s","Ġfig ured","Ġcont ract","Ġrespon d","Ġrespon ses","Ġtando on","Ġstand by","Ġyear s","Ġclass ified","na w","Ġopera te","room z","Ġrefer ral","Ġrefer rence","Ġunivers ities","Ġplay ing","Ġsatisf actory","Ġmod rate","Ġeas ier","Ġadjust ed","Ġmagd elene","Ġdropp ing","under stood","Ġwand ered","Ġland mar","Ġsit ting","Ġind ifferent","Ġind iana","Ġdrive n","Ġmary s","Ġatt ributes","cent re","Ġsm art","Ġstu ck","Ġmath s","Ġmix up","Ġpara ce","reser ve","Ġcut s","Ġrep hra","Ġret rie","Ġbenn ys","Ġinqui ries","Ġreta urant","Ġanyth in","Ġanyth ig","Ġwhite house","Ġsettle s","Ġrestraunt s","Ġtur n","Ġsave d","Ġodd ly","Ġmed icine","Ġstort fod","Ġprior ity","Ġx xx","Ġtreat ing","Ġavai ble","Ġwou l","Ġwou dl","Ġwou old","Ġgu ide","Ġgu idance","Ġlear ning","Ġchar ming","Ġfax ed","Ġmode st","Ġgrab bing","Ġfollow ed","Ġfir m","Ġsk ip","Ġest imated","christ i","Ġaut o","Ġthur day","Ġpain t","Ġcru ises","Ġdu de","Ġmar ger","Ġboard ing","Ġchild ren","Ġmoderat ley","Ġceleb rate","lot s","min s","sid ney","Ġfore ver","Ġph ysic","Ġpla nts","Ġinc redi","Ġnee ed","Ġarr ving","Ġcol lea","Ġsent ence","Ġhome made","Ġpass code","Ġvacan cies","Ġglitch ed","gu ing","Ġfu nds","Ġfu ssy","Ġfill s","Ġcas h","Ġsal on","Ġgoo bye","Ġatta ched","Ġguesth omes","Ġstri kes","Ġconsist ent","Ġoffice r","Ġswitch ed","Ġaddenbrook e","Ġdecis ions","Ġautom ated","Ġfocus ed","every one","mo dern","pl an","Ġpea s","Ġpea ceful","Ġeuro logy","Ġnigh clubs","Ġdemand s","Ġsus sex","Ġserious ly","Ġsea son","Ġstro ll","Ġstro ver","Ġadmiss ions","Ġadmiss oin","Ġcap able","Ġcap abil","Ġoverwhel med","Ġoverwhel ming","Ġjin ling","Ġjin lin","Ġrestau ant","Ġrestau arnt","Ġbrasser i","Ġbrasser ie","Ġeconom ical","Ġeconom ically","Ġrestaruant s","guest houses","tot al","Ġvalue d","Ġamend ed","Ġagree able","Ġthor ough","Ġfer ret","Ġfave s","Ġpal ce","Ġpie ces","Ġhea vily","Ġbon us","Ġbum ped","Ġcit iroom","Ġsqu alour","Ġinput ting","Ġmon ument","Ġbeg un","Ġemm anuel","Ġdefin ately","Ġnightl ife","Ġstra ight","Ġintri guing","Ġdiffer nt","Ġcityroom s","Ġpostco d","Ġpoc ket","Ġsett led","Ġquiet er","Ġbudd ha","Ġdisco vered","Ġsplu rge","Ġcathar ine","Ġhungting ton","scudamore s","Ġrestarant s","Ġmiscomm unication","Ġsmooth ly","Ġgirl friend","Ġattemp ted","Ġextend ed","bea utiful","brill iant","dow ntown","fab ulous","gr oovy","iat ric","lit tle","plea sure","ugue se","wou dl","Ġstin ks","Ġtan h","Ġtex ting","Ġtep in","Ġtig er","Ġavi alable","Ġthous and","Ġimag ine","Ġibiz a","Ġfel ix","Ġflo or","Ġped iatric","Ġpalan ce","Ġtoyot a","Ġnue ro","Ġninet een","Ġhan ging","Ġhle p","Ġhem p","Ġhosp tial","Ġanim als","Ġblo cks","Ġbrew ery","Ġcot ta","Ġcult ure","Ġses ame","Ġsia gon","Ġfortun ate","lens field","Ġgla ss","Ġgyne cology","Ġgorge ous","Ġneuro science","Ġopit ions","Ġmow bray","Ġrefere nece","Ġrecom men","Ġrevers ed","Ġrethin king","Ġatlea st","Ġleich ester","Ġleiest er","Ġelab orate","Ġeight een","Ġeff icient","Ġargu ment","Ġurge ntly","Ġmusl im","Ġshab by","Ġshangh ai","Ġmaint enance","Ġmajor ity","Ġsecu rity","Ġstur ton","Ġwebs ite","Ġrus kin","Ġminim um","unfortun at","univers ity","Ġspecta cular","Ġeverybod y","Ġconcent rate","Ġexpen se","Ġdesign ation","Ġdesperat ely","Ġoverlook ed","Ġjud gment","Ġimpossi ble","Ġpapad oux","Ġtrumping ton","Ġcather ine","Ġcambridgeshi re","entertain ment","Ġsatru day","Ġlandmar ks","Ġrephra se","Ġmarger ita","Ġcitiroom z"]}}